<PAD>	0
<UNK>	0
<SOS>	0
<EOS>	0
<MASK>	0
ha	-0
▁k	-1
ar	-2
▁ha	-3
▁m	-4
▁s	-5
hi	-6
▁t	-7
▁a	-8
na	-9
e-	-10
▁hai	-11
-e-	-12
▁b	-13
an	-14
▁d	-15
▁j	-16
ya	-17
ra	-18
▁na	-19
▁ki	-20
hu	-21
▁ka	-22
en	-23
▁p	-24
at	-25
▁g	-26
ho	-27
un	-28
la	-29
▁se	-30
▁ko	-31
is	-32
▁men	-33
▁ja	-34
in	-35
▁sa	-36
▁ba	-37
il	-38
va	-39
▁ma	-40
ta	-41
da	-42
▁ra	-43
e	-44
▁ke	-45
▁ho	-46
ir	-47
hin	-48
▁u	-49
ch	-50
▁hai	-51
▁hu	-52
▁n	-53
▁hain	-54
▁bhi	-55
▁aa	-56
▁to	-57
kh	-58
sh	-59
ye	-60
cha	-61
▁ham	-62
am	-63
▁kar	-64
▁nahin	-65
ur	-66
▁z	-67
on	-68
uj	-69
han	-70
▁v	-71
he	-72
har	-73
▁ta	-74
▁kya	-75
▁l	-76
▁ga	-77
▁cha	-78
▁vo	-79
▁dil	-80
te	-81
▁ye	-82
ti	-83
▁pa	-84
ik	-85
▁va	-86
▁sha	-87
▁de	-88
ga	-89
▁	-90
ma	-91
▁us	-92
▁jo	-93
▁tu	-94
▁la	-95
ba	-96
ara	-97
▁tha	-98
ul	-99
▁ya	-100
▁kha	-101
▁hi	-102
i	-103
al	-104
ish	-105
▁khu	-106
▁ne	-107
-e-s	-108
gar	-109
▁r	-110
▁muj	-111
▁q	-112
uch	-113
▁ab	-114
▁main	-115
▁par	-116
ne	-117
iya	-118
fa	-119
er	-120
ad	-121
uchh	-122
hir	-123
▁gha	-124
zar	-125
uun	-126
▁huun	-127
▁ap	-128
▁hain	-129
man	-130
▁kis	-131
▁koi	-132
▁aur	-133
▁kuchh	-134
o-	-135
▁pe	-136
▁da	-137
li	-138
▁har	-139
▁mir	-140
-o-	-141
▁mu	-142
ab	-143
▁dar	-144
▁is	-145
gi	-146
▁mujh	-147
-e-k	-148
-e-d	-149
ira	-150
▁ai	-151
it	-152
ek	-153
▁tir	-154
▁phir	-155
▁su	-156
▁ik	-157
▁jaa	-158
▁gaya	-159
▁f	-160
▁tum	-161
as	-162
za	-163
▁dekh	-164
▁kab	-165
yuun	-166
▁rah	-167
ni	-168
▁ch	-169
hr	-170
▁an	-171
▁nahin	-172
ane	-173
hun	-174
▁hua	-175
gh	-176
us	-177
▁men	-178
ata	-179
ishq	-180
▁be-	-181
iy	-182
▁jis	-183
m-e-	-184
sa	-185
ang	-186
-k	-187
▁o	-188
▁mer	-189
▁thi	-190
sha	-191
ari	-192
▁du	-193
▁si	-194
▁tha	-195
▁kah	-196
▁as	-197
▁raha	-198
▁gu	-199
bar	-200
▁di	-201
-e-g	-202
▁jab	-203
le	-204
rat	-205
ut	-206
▁ut	-207
▁tuj	-208
▁sar	-209
id	-210
ani	-211
▁gar	-212
▁mil	-213
▁ek	-214
▁tak	-215
▁tara	-216
▁un	-217
st	-218
▁sab	-219
▁se	-220
ath	-221
▁ni	-222
▁ter	-223
en	-224
hon	-225
▁kabhi	-226
▁bad	-227
na	-228
▁ka	-229
▁fa	-230
▁za	-231
▁kahan	-232
ja	-233
-e-na	-234
bat	-235
▁kyuun	-236
▁nik	-237
gah	-238
hut	-239
▁mujhe	-240
mat	-241
▁qa	-242
▁mire	-243
▁i	-244
▁kisi	-245
▁ishq	-246
hab	-247
▁ban	-248
▁c	-249
era	-250
▁dek	-251
ga	-252
var	-253
um	-254
▁sam	-255
ka	-256
▁bahut	-257
▁aaj	-258
inda	-259
di	-260
▁so	-261
pa	-262
ya	-263
▁ho	-264
▁magar	-265
ham	-266
-e-a	-267
▁apne	-268
▁baat	-269
-e-dil	-270
ate	-271
yar	-272
▁le	-273
ge	-274
uq	-275
▁ghar	-276
dar	-277
▁li	-278
▁the	-279
▁tire	-280
▁tujh	-281
▁ki	-282
▁nazar	-283
▁do	-284
▁ji	-285
▁ais	-286
▁bar	-287
▁tiri	-288
-e-b	-289
▁mar	-290
▁mo	-291
qi	-292
▁zam	-293
iz	-294
▁gaya	-295
ta	-296
si	-297
▁gai	-298
▁agar	-299
-e-m	-300
▁ak	-301
▁in	-302
▁apni	-303
-e-ta	-304
▁gham	-305
are	-306
▁din	-307
▁rahe	-308
-e-ma	-309
▁zinda	-310
-ba	-311
▁miri	-312
▁ko	-313
-e-sa	-314
an	-315
▁sak	-316
eh	-317
hal	-318
▁ru	-319
▁chal	-320
▁diya	-321
▁yaad	-322
qat	-323
▁lag	-324
kar	-325
▁huun	-326
qa	-327
shi	-328
▁lo	-329
▁aap	-330
-e-j	-331
▁tarah	-332
ban	-333
▁man	-334
▁jal	-335
▁kam	-336
-e-sha	-337
in	-338
rab	-339
uniya	-340
▁ro	-341
▁mere	-342
▁mah	-343
tar	-344
▁jaan	-345
far	-346
la	-347
dam	-348
lam	-349
▁khuda	-350
van	-351
hl	-352
ud	-353
▁nigah	-354
▁bas	-355
-e-ba	-356
▁meri	-357
habbat	-358
▁jan	-359
shk	-360
▁kahin	-361
▁khud	-362
▁hua	-363
▁shi	-364
hiy	-365
▁be	-366
▁jahan	-367
de	-368
sn	-369
ati	-370
vab	-371
▁dam	-372
▁saa	-373
▁bhar	-374
▁ham	-375
▁hava	-376
▁shab	-377
-e-ha	-378
▁zindagi	-379
▁bi	-380
▁chu	-381
▁um	-382
▁rang	-383
▁vahi	-384
▁yuun	-385
▁duniya	-386
▁gul	-387
▁raat	-388
arz	-389
▁ba-	-390
▁saath	-391
▁dard	-392
dan	-393
▁aan	-394
▁abhi	-395
▁teri	-396
▁hui	-397
lab	-398
-e-ra	-399
lib	-400
▁apna	-401
▁sho	-402
▁kaun	-403
ub	-404
▁gae	-405
▁has	-406
▁kais	-407
yat	-408
iye	-409
▁hue	-410
▁log	-411
hen	-412
-e-va	-413
▁bhi	-414
▁mera	-415
▁kh	-416
▁rakh	-417
▁kar	-418
▁main	-419
d	-420
▁tam	-421
sta	-422
az	-423
gha	-424
ina	-425
▁sun	-426
sar	-427
▁kya	-428
▁mira	-429
▁haath	-430
zr	-431
uf	-432
ge	-433
▁lek	-434
▁tere	-435
ulf	-436
▁aae	-437
▁jaane	-438
jh	-439
o	-440
▁rahi	-441
khon	-442
▁kiya	-443
▁par	-444
▁it	-445
-e-z	-446
▁tan	-447
▁chho	-448
-e-gul	-449
uk	-450
▁chan	-451
z	-452
▁az	-453
▁dekha	-454
▁bhu	-455
ila	-456
uda	-457
▁tira	-458
▁hota	-459
qt	-460
san	-461
▁mujhe	-462
▁shahr	-463
ak	-464
▁khi	-465
▁husn	-466
▁liye	-467
▁bada	-468
▁use	-469
▁khat	-470
▁utha	-471
ida	-472
▁aj	-473
▁ne	-474
lak	-475
tab	-476
▁ke	-477
-e-kha	-478
-e-ishq	-479
▁hamen	-480
mi	-481
▁puchh	-482
ib	-483
ikha	-484
▁bat	-485
▁kare	-486
ana	-487
▁qat	-488
▁chash	-489
ah	-490
te	-491
▁pah	-492
▁shar	-493
▁hon	-494
hiye	-495
▁tera	-496
▁jaata	-497
ru	-498
anj	-499
▁sama	-500
▁guzar	-501
shan	-502
▁far	-503
▁vaqt	-504
▁ankhon	-505
ve	-506
-ha	-507
kha	-508
▁mat	-509
hra	-510
▁bait	-511
gi	-512
lat	-513
▁gai	-514
▁khush	-515
-g	-516
im	-517
tam	-518
▁kho	-519
▁thi	-520
▁kiya	-521
-a	-522
▁zab	-523
sti	-524
▁sahi	-525
enge	-526
▁kaam	-527
yal	-528
▁han	-529
▁mun	-530
▁chhu	-531
▁jaae	-532
▁samj	-533
ehr	-534
▁aata	-535
▁go	-536
chch	-537
iyan	-538
▁bana	-539
▁naam	-540
▁lab	-541
▁jaae	-542
kan	-543
▁vaa	-544
▁mohabbat	-545
-na	-546
hta	-547
yan	-548
▁bha	-549
▁jais	-550
▁jae	-551
▁akhir	-552
bab	-553
vat	-554
▁kahte	-555
▁sub	-556
-e-be-	-557
▁achch	-558
▁chara	-559
▁jaate	-560
▁tujhe	-561
▁baa	-562
▁jin	-563
▁laga	-564
▁pya	-565
▁duur	-566
zan	-567
-e-khu	-568
▁khvab	-569
▁taraf	-570
-e-p	-571
zm	-572
▁zar	-573
▁aaya	-574
▁chand	-575
▁karte	-576
tan	-577
▁paa	-578
▁liya	-579
▁nikal	-580
▁ghalib	-581
bi	-582
▁bu	-583
hiye	-584
▁dush	-585
▁koi	-586
▁zakh	-587
▁chhod	-588
jr	-589
ke	-590
▁ada	-591
▁tar	-592
▁umr	-593
▁aankh	-594
▁qad	-595
-e-ja	-596
▁yahi	-597
▁af	-598
▁baar	-599
▁hoga	-600
▁dekhte	-601
▁samajh	-602
dat	-603
fil	-604
▁sada	-605
vaz	-606
shat	-607
▁mai	-608
▁suna	-609
▁vaal	-610
▁diya	-611
hat	-612
zil	-613
▁aai	-614
▁laa	-615
▁mauj	-616
sl	-617
sht	-618
su	-619
ine	-620
sat	-621
▁bo	-622
▁pad	-623
▁khabar	-624
yun	-625
▁pi	-626
▁kit	-627
-e-da	-628
▁khaak	-629
▁shakh	-630
▁yahan	-631
-e-gham	-632
-e-f	-633
unun	-634
▁ghu	-635
▁phu	-636
-e-yar	-637
gan	-638
nam	-639
▁ahl	-640
▁hoti	-641
▁bahar	-642
▁aise	-643
▁khul	-644
-e-cha	-645
▁hota	-646
ad	-647
▁khayal	-648
▁ah	-649
▁yaar	-650
-p	-651
che	-652
▁gae	-653
▁dikha	-654
▁surat	-655
▁tanha	-656
-e-r	-657
▁yak	-658
▁dost	-659
▁ghair	-660
▁lekin	-661
he	-662
-ba-	-663
▁band	-664
▁dhun	-665
▁guzr	-666
▁subh	-667
▁yaan	-668
▁jaana	-669
▁zaban	-670
ikr	-671
ind	-672
yad	-673
▁te	-674
iraq	-675
▁naq	-676
▁mud	-677
▁rak	-678
▁tas	-679
▁zamin	-680
her	-681
▁kal	-682
▁ankh	-683
▁zara	-684
▁zulf	-685
▁badal	-686
▁raha	-687
▁gir	-688
▁aate	-689
▁aisa	-690
gu	-691
ir	-692
nat	-693
▁suun	-694
▁vah	-695
yamat	-696
▁liye	-697
ki	-698
ram	-699
▁na-	-700
▁aaya	-701
▁dast	-702
▁dushman	-703
uz	-704
un	-705
▁ud	-706
▁nis	-707
▁kaha	-708
fas	-709
had	-710
hane	-711
ij	-712
bad	-713
-e-vafa	-714
fat	-715
kht	-716
▁dhu	-717
▁var	-718
▁haal	-719
▁hui	-720
▁shik	-721
ste	-722
▁mi	-723
-e-mo	-724
▁hue	-725
-e-naz	-726
▁zakhm	-727
▁dariya	-728
▁manzil	-729
khi	-730
▁aad	-731
▁khin	-732
▁munh	-733
▁jigar	-734
-d	-735
ash	-736
val	-737
▁jhu	-738
▁naz	-739
▁dagh	-740
▁jaati	-741
▁kahun	-742
▁zamane	-743
enge	-744
▁kuun	-745
-e-dar	-746
▁chale	-747
▁pahun	-748
▁e	-749
iye	-750
hana	-751
shna	-752
▁chi	-753
▁de	-754
▁shaam	-755
ush	-756
▁eh	-757
iyon	-758
▁maq	-759
▁suk	-760
▁juda	-761
▁raah	-762
▁dhund	-763
▁phuul	-764
ae	-765
anv	-766
▁hal	-767
▁gard	-768
▁kham	-769
▁puch	-770
▁ar	-771
▁usi	-772
▁jaise	-773
▁pahle	-774
▁sitam	-775
zi	-776
-kh	-777
she	-778
ton	-779
arzu	-780
▁buj	-781
▁pur	-782
▁aina	-783
▁siva	-784
▁lagta	-785
▁shauq	-786
▁qayamat	-787
fta	-788
▁roz	-789
-e-as	-790
-e-pa	-791
-e-qa	-792
▁inti	-793
▁vafa	-794
▁asman	-795
▁kaise	-796
▁pyaar	-797
zat	-798
▁daa	-799
▁uda	-800
▁jise	-801
▁maal	-802
▁tumhar	-803
ho	-804
hte	-805
▁ul	-806
vana	-807
▁aisi	-808
▁ghaz	-809
▁mile	-810
▁aalam	-811
▁hamare	-812
▁chashm-e-	-813
-s	-814
hiq	-815
le	-816
hara	-817
▁lut	-818
-e-shauq	-819
-e-mohabbat	-820
daz	-821
tish	-822
▁sad	-823
▁kiye	-824
▁chahiye	-825
lah	-826
mar	-827
▁gali	-828
▁lahu	-829
▁jalva	-830
fir	-831
▁bazm	-832
▁shai	-833
▁qadam	-834
▁rahe	-835
▁achchha	-836
▁san	-837
-e-ni	-838
▁aati	-839
▁ashk	-840
-e-rah	-841
▁zamana	-842
▁gham-e-	-843
-j	-844
hi	-845
▁hijr	-846
▁qadar	-847
▁saath	-848
-b	-849
re	-850
-sa	-851
ura	-852
▁al	-853
▁fur	-854
▁tak	-855
▁bhuul	-856
▁aah	-857
▁qas	-858
▁qis	-859
▁hote	-860
▁kyun	-861
▁mila	-862
▁junun	-863
▁chaman	-864
▁lekin	-865
▁shayad	-866
▁tarah	-867
if	-868
uman	-869
▁but	-870
▁tab	-871
▁ajab	-872
▁bata	-873
▁itna	-874
▁aadmi	-875
▁firaq	-876
▁tamam	-877
nu	-878
igar	-879
▁isi	-880
▁maj	-881
-e-hu	-882
▁nikla	-883
-ra	-884
lon	-885
osh	-886
-dar	-887
-gar	-888
isal	-889
uhar	-890
▁dua	-891
▁mit	-892
▁pai	-893
▁aae	-894
▁rukh	-895
▁hazar	-896
▁mera	-897
▁charagh	-898
hs	-899
khu	-900
vir	-901
▁bul	-902
▁pat	-903
ukhan	-904
▁the	-905
▁baithe	-906
▁maalum	-907
hid	-908
ghan	-909
▁aane	-910
▁utar	-911
▁atish	-912
▁ankhen	-913
▁shakhs	-914
kin	-915
sab	-916
▁ku	-917
▁aag	-918
▁paas	-919
▁hamari	-920
▁samjha	-921
af	-922
mak	-923
nan	-924
rar	-925
▁anj	-926
▁mas	-927
▁naqsh	-928
▁chashm	-929
▁hasrat	-930
▁taraf	-931
bu	-932
khti	-933
idhar	-934
▁fara	-935
▁soch	-936
▁milta	-937
▁paanv	-938
▁sahra	-939
ala	-940
▁pahl	-941
▁karta	-942
▁safar	-943
▁vahshat	-944
ri	-945
mil	-946
qi	-947
-bar	-948
-khu	-949
chan	-950
vani	-951
▁fit	-952
▁nas	-953
-e-jan	-954
-e-mai	-955
▁mai-k	-956
▁kharab	-957
all	-958
zam	-959
hani	-960
▁and	-961
-e-hi	-962
-e-la	-963
▁hosh	-964
▁divar	-965
▁chhupa	-966
mal	-967
ran	-968
▁hat	-969
▁khe	-970
▁tal	-971
shkil	-972
▁avaz	-973
▁khan	-974
▁kiij	-975
▁lete	-976
▁maut	-977
▁mehr	-978
▁ashiq	-979
▁kare	-980
▁karti	-981
▁jaega	-982
▁muddat	-983
eban	-984
iran	-985
▁sura	-986
▁baaqi	-987
▁baten	-988
▁rasta	-989
▁chale	-990
▁kahan	-991
par	-992
qar	-993
▁il	-994
zzat	-995
▁shu	-996
▁chup	-997
▁jala	-998
▁naaz	-999
▁ranj	-1000
▁paida	-1001
▁vaale	-1002
▁mahfil	-1003
bas	-1004
dad	-1005
▁re	-1006
ftar	-1007
usva	-1008
▁hans	-1009
▁karo	-1010
▁sach	-1011
-e-gha	-1012
▁liya	-1013
▁unhen	-1014
▁nikle	-1015
▁puchh	-1016
▁kyunkar	-1017
mid	-1018
qad	-1019
vafa	-1020
▁eti	-1021
▁khva	-1022
▁shor	-1023
▁andaz	-1024
▁badan	-1025
▁varna	-1026
jar	-1027
urda	-1028
▁haq	-1029
▁lam	-1030
▁mus	-1031
iyan	-1032
▁sara	-1033
▁aarzu	-1034
▁parda	-1035
▁sahi	-1036
▁shama	-1037
▁hamara	-1038
▁tumhen	-1039
-e-sukhan	-1040
m	-1041
uh	-1042
bul	-1043
jab	-1044
sib	-1045
yon	-1046
▁zo	-1047
▁kan	-1048
▁pal	-1049
▁zal	-1050
qiqat	-1051
▁daur	-1052
▁haae	-1053
▁haan	-1054
▁lutf	-1055
▁insan	-1056
▁karo	-1057
-e-shab	-1058
hai	-1059
nar	-1060
biat	-1061
▁had	-1062
▁mal	-1063
▁uth	-1064
▁baad	-1065
▁bich	-1066
▁gira	-1067
▁likh	-1068
▁maza	-1069
▁aansu	-1070
▁chiiz	-1071
▁daman	-1072
▁hasil	-1073
▁khuun	-1074
▁qatil	-1075
▁zafar	-1076
▁chahta	-1077
▁fursat	-1078
▁sakta	-1079
▁ghalib	-1080
ft	-1081
oz	-1082
-pa	-1083
sana	-1084
▁afs	-1085
▁soz	-1086
-e-do	-1087
▁bala	-1088
▁bara	-1089
▁khal	-1090
▁samb	-1091
▁bagha	-1092
▁khinch	-1093
▁tabiat	-1094
-e-bahar	-1095
uri	-1096
usam	-1097
▁kat	-1098
▁qur	-1099
▁sit	-1100
ushan	-1101
▁mang	-1102
▁tegh	-1103
▁jante	-1104
▁paani	-1105
-e-husn	-1106
▁samjhe	-1107
▁kahiye	-1108
ada	-1109
ade	-1110
fan	-1111
onon	-1112
▁ahi	-1113
▁jit	-1114
▁tu	-1115
-e-fa	-1116
-e-si	-1117
istan	-1118
▁asar	-1119
▁saba	-1120
▁sham	-1121
▁zikr	-1122
-e-kar	-1123
-e-sho	-1124
▁allah	-1125
▁donon	-1126
▁jaaen	-1127
▁tamas	-1128
▁vahan	-1129
-e-khun	-1130
▁mushkil	-1131
se	-1132
ve	-1133
rang	-1134
▁ahd	-1135
▁bal	-1136
▁nai	-1137
▁rab	-1138
▁sir	-1139
▁aage	-1140
▁faza	-1141
▁itni	-1142
▁sang	-1143
▁sher	-1144
▁tala	-1145
▁zauq	-1146
-e-sar	-1147
▁asad	-1148
▁chala	-1149
▁chehr	-1150
▁idhar	-1151
▁qatra	-1152
▁siine	-1153
-e-hasti	-1154
▁intizar	-1155
-e-chaman	-1156
and	-1157
bal	-1158
-e-t	-1159
anna	-1160
ghaf	-1161
ghar	-1162
▁arz	-1163
▁saj	-1164
▁sur	-1165
▁taa	-1166
-e-be	-1167
lamat	-1168
▁bura	-1169
▁khun	-1170
▁pata	-1171
▁maqam	-1172
▁saari	-1173
▁sharm	-1174
▁udhar	-1175
▁ummid	-1176
▁jaaen	-1177
▁mausam	-1178
▁sharab	-1179
▁haqiqat	-1180
-ru	-1181
ale	-1182
hed	-1183
▁av	-1184
▁lu	-1185
ate	-1186
hish	-1187
oshi	-1188
▁sau	-1189
▁tho	-1190
-e-in	-1191
eshan	-1192
▁bach	-1193
▁hone	-1194
-e-gar	-1195
▁chaar	-1196
▁kahta	-1197
▁kaisi	-1198
▁rusva	-1199
▁zalim	-1200
▁khushi	-1201
-e-nazar	-1202
▁tamanna	-1203
nah	-1204
-gah	-1205
areb	-1206
iyat	-1207
numa	-1208
▁jaz	-1209
▁rag	-1210
kayat	-1211
zm-e-	-1212
▁asad	-1213
▁dukh	-1214
▁ghun	-1215
▁hona	-1216
▁saan	-1217
▁tark	-1218
▁vaan	-1219
▁ashna	-1220
▁baad	-1221
▁jagah	-1222
▁thahr	-1223
▁dekha	-1224
▁sukhan	-1225
▁gardish	-1226
▁tumhare	-1227
-f	-1228
-ma	-1229
na-	-1230
▁den	-1231
▁der	-1232
▁lik	-1233
▁dava	-1234
▁hoga	-1235
▁kahe	-1236
▁musa	-1237
▁ruuh	-1238
ghaful	-1239
▁raste	-1240
▁sakti	-1241
▁bahut	-1242
▁divana	-1243
▁gaiin	-1244
▁ghazal	-1245
▁hathon	-1246
▁raushan	-1247
▁pareshan	-1248
oh	-1249
dil	-1250
qab	-1251
qib	-1252
▁im	-1253
thar	-1254
▁bik	-1255
▁jag	-1256
▁taq	-1257
-e-ya	-1258
indan	-1259
▁rish	-1260
▁bhala	-1261
▁falak	-1262
▁saare	-1263
▁karte	-1264
▁shaikh	-1265
▁khushbu	-1266
▁patthar	-1267
▁sambhal	-1268
▁tamasha	-1269
up	-1270
-ta	-1271
don	-1272
zaj	-1273
ehra	-1274
▁dho	-1275
ulfat	-1276
undar	-1277
▁harf	-1278
▁jaun	-1279
▁hargi	-1280
▁karen	-1281
▁lage	-1282
▁qasam	-1283
▁rahta	-1284
▁suraj	-1285
khtiyar	-1286
▁jaata	-1287
▁qismat	-1288
▁shikva	-1289
▁dekhiye	-1290
me	-1291
-da	-1292
niya	-1293
▁dha	-1294
▁pan	-1295
▁tuu	-1296
anjir	-1297
▁barq	-1298
▁chha	-1299
▁josh	-1300
▁aata	-1301
▁chuka	-1302
▁saman	-1303
▁samne	-1304
▁shokh	-1305
▁karen	-1306
▁magar	-1307
▁rakkha	-1308
▁chahiye	-1309
▁gareban	-1310
▁samundar	-1311
da	-1312
gal	-1313
una	-1314
▁iq	-1315
▁pu	-1316
dhar	-1317
idar	-1318
▁ala	-1319
▁haz	-1320
▁len	-1321
▁pha	-1322
▁tuk	-1323
▁yun	-1324
-e-za	-1325
ughan	-1326
▁gila	-1327
▁lage	-1328
▁aave	-1329
▁aksar	-1330
▁ehsan	-1331
▁hayat	-1332
▁khata	-1333
▁saaqi	-1334
▁yunhi	-1335
daa	-1336
▁ti	-1337
araz	-1338
ghma	-1339
hun	-1340
khta	-1341
shar	-1342
▁abr	-1343
▁jha	-1344
▁koh	-1345
▁mis	-1346
▁saf	-1347
▁utt	-1348
hiyan	-1349
▁asan	-1350
▁badh	-1351
▁faiz	-1352
▁fikr	-1353
▁mash	-1354
▁mohs	-1355
▁nash	-1356
▁raaz	-1357
▁sabr	-1358
▁tish	-1359
▁basti	-1360
▁bhula	-1361
▁daagh	-1362
▁dasht	-1363
▁janta	-1364
▁javab	-1365
▁karne	-1366
▁karun	-1367
▁kitna	-1368
▁makan	-1369
-e-dost	-1370
▁dastan	-1371
▁ghubar	-1372
▁lazzat	-1373
▁talash	-1374
▁vaale	-1375
-m	-1376
shr	-1377
sim	-1378
yus	-1379
zab	-1380
amal	-1381
irat	-1382
▁juz	-1383
▁tah	-1384
▁zer	-1385
▁zul	-1386
guzar	-1387
▁azad	-1388
▁bakh	-1389
▁jism	-1390
▁kaho	-1391
▁vali	-1392
-e-khi	-1393
-e-tas	-1394
▁bacha	-1395
▁banda	-1396
▁hamin	-1397
▁karna	-1398
▁laakh	-1399
▁logon	-1400
▁niind	-1401
▁bikhar	-1402
▁chehre	-1403
▁etibar	-1404
▁nishan	-1405
▁rakhte	-1406
▁vaala	-1407
vv	-1408
ust	-1409
yam	-1410
▁aq	-1411
iyah	-1412
shin	-1413
urat	-1414
▁aab	-1415
▁ila	-1416
▁meh	-1417
▁rat	-1418
▁rut	-1419
▁char	-1420
▁imti	-1421
▁juun	-1422
▁khol	-1423
▁log	-1424
▁nama	-1425
▁pesh	-1426
-e-par	-1427
-e-qat	-1428
▁chhup	-1429
▁havas	-1430
▁kahne	-1431
▁nafas	-1432
▁bevafa	-1433
▁jaana	-1434
▁khatir	-1435
-e-jigar	-1436
▁pahunch	-1437
▁samajhte	-1438
a	-1439
du	-1440
fi	-1441
-af	-1442
hur	-1443
iri	-1444
kta	-1445
zur	-1446
-o-g	-1447
hen	-1448
kash	-1449
vish	-1450
yad	-1451
▁ake	-1452
▁miz	-1453
▁ras	-1454
-e-ab	-1455
yaban	-1456
▁aana	-1457
▁dete	-1458
▁dida	-1459
▁fasl	-1460
▁garm	-1461
▁khak	-1462
▁naya	-1463
▁qatl	-1464
▁vasl	-1465
▁kitne	-1466
▁kitni	-1467
▁raqib	-1468
▁rashk	-1469
▁sake	-1470
▁talak	-1471
▁dekhna	-1472
▁hairat	-1473
▁jaegi	-1474
-e-junun	-1475
-e-sahar	-1476
-e-taman	-1477
▁achchhi	-1478
▁khvahish	-1479
ez	-1480
ch	-1481
chi	-1482
ite	-1483
mad	-1484
nun	-1485
iron	-1486
m-o-	-1487
▁bah	-1488
▁yaq	-1489
▁saza	-1490
▁vais	-1491
-e-mah	-1492
▁chalo	-1493
▁dhuup	-1494
▁dilon	-1495
▁halat	-1496
▁hasti	-1497
▁hote	-1498
▁jalib	-1499
▁kaash	-1500
▁kafir	-1501
▁raush	-1502
▁saans	-1503
▁sahar	-1504
▁sauda	-1505
-e-aina	-1506
▁ahista	-1507
▁be-qar	-1508
▁chand	-1509
▁chehra	-1510
▁kiije	-1511
▁saaqi	-1512
▁shikas	-1513
▁tasvir	-1514
▁zanjir	-1515
▁bazm-e-	-1516
▁sham-e-	-1517
▁pahuncha	-1518
▁shikayat	-1519
-ga	-1520
kam	-1521
-cha	-1522
alli	-1523
hgan	-1524
savv	-1525
▁bis	-1526
▁nau	-1527
▁qab	-1528
jiye	-1529
khudi	-1530
shish	-1531
▁aai	-1532
▁bhul	-1533
▁deta	-1534
▁dil	-1535
▁jafa	-1536
▁khar	-1537
▁maan	-1538
▁pade	-1539
▁saae	-1540
▁shah	-1541
▁tava	-1542
-e-zam	-1543
▁dekho	-1544
▁ghara	-1545
▁kahen	-1546
▁khuub	-1547
▁lagti	-1548
▁nikla	-1549
▁paaya	-1550
▁rahte	-1551
▁vaaiz	-1552
-e-rang	-1553
▁akhir	-1554
▁bulbul	-1555
▁darkar	-1556
▁milta	-1557
▁ankhen	-1558
▁tumhari	-1559
son	-1560
▁iz	-1561
-dil	-1562
-sha	-1563
arib	-1564
dam	-1565
gana	-1566
srat	-1567
▁apn	-1568
▁fas	-1569
▁gum	-1570
▁nae	-1571
▁pas	-1572
m-e-j	-1573
▁diye	-1574
▁kash	-1575
▁saka	-1576
-e-mar	-1577
-khana	-1578
irahan	-1579
▁hisab	-1580
▁marne	-1581
▁muqad	-1582
▁sabhi	-1583
▁talab	-1584
▁thiin	-1585
-e-sitam	-1586
▁gulshan	-1587
▁raushni	-1588
▁baghair	-1589
kr	-1590
bra	-1591
iib	-1592
jud	-1593
one	-1594
-kha	-1595
-tar	-1596
esha	-1597
vari	-1598
▁do-	-1599
▁ja	-1600
▁kai	-1601
▁nar	-1602
▁raz	-1603
▁taj	-1604
▁yar	-1605
-e-ka	-1606
▁aaj	-1607
▁baaz	-1608
▁baja	-1609
▁goya	-1610
▁jani	-1611
▁pyar	-1612
▁zahr	-1613
-e-far	-1614
-e-shi	-1615
savvur	-1616
▁ajiib	-1617
▁bhari	-1618
▁chhed	-1619
▁dekhe	-1620
▁divan	-1621
▁faqat	-1622
▁fareb	-1623
▁hasin	-1624
▁jaao	-1625
▁kaisa	-1626
▁nikle	-1627
▁pahlu	-1628
▁sanam	-1629
▁tera	-1630
-nashin	-1631
▁jauhar	-1632
▁kidhar	-1633
▁matlab	-1634
-e-jahan	-1635
-e-nigah	-1636
-ki	-1637
-ni	-1638
dir	-1639
gam	-1640
tak	-1641
-e-q	-1642
khla	-1643
magh	-1644
shta	-1645
ulat	-1646
▁bin	-1647
▁jur	-1648
▁qar	-1649
▁tez	-1650
▁tod	-1651
▁duun	-1652
▁haus	-1653
▁khel	-1654
▁kise	-1655
▁nazr	-1656
▁pari	-1657
▁aage	-1658
▁bujha	-1659
▁chahe	-1660
▁guzre	-1661
▁ishq	-1662
▁khafa	-1663
▁khana	-1664
▁milne	-1665
▁naseh	-1666
▁saaya	-1667
▁taqat	-1668
▁udaas	-1669
▁yaani	-1670
▁zahir	-1671
-e-dard	-1672
-e-khat	-1673
-e-zulf	-1674
▁jaiye	-1675
▁kabhi	-1676
▁thahar	-1677
▁bichhad	-1678
▁musafir	-1679
▁shayad	-1680
▁tumhara	-1681
-e-sharab	-1682
-e-tamanna	-1683
his	-1684
sai	-1685
tal	-1686
▁am	-1687
▁uj	-1688
-shi	-1689
ghaz	-1690
jiye	-1691
oge	-1692
▁lad	-1693
▁maz	-1694
▁she	-1695
▁to	-1696
alluf	-1697
inhan	-1698
▁abad	-1699
▁bahr	-1700
▁ghur	-1701
▁jaam	-1702
▁musk	-1703
▁nava	-1704
▁sirf	-1705
▁tang	-1706
-e-bis	-1707
-e-sub	-1708
-e-tar	-1709
▁abhi	-1710
▁akbar	-1711
▁guman	-1712
▁hijab	-1713
▁khila	-1714
▁milti	-1715
▁nasib	-1716
▁rakkh	-1717
▁sakht	-1718
▁ulfat	-1719
▁valon	-1720
▁yaan	-1721
-e-hava	-1722
▁baitha	-1723
▁dekhta	-1724
▁ghabra	-1725
▁ghafil	-1726
▁ghazab	-1727
▁ham-sa	-1728
▁hazrat	-1729
▁tanhai	-1730
▁nikalti	-1731
-e-duniya	-1732
▁taghaful	-1733
▁tasavvur	-1734
asi	-1735
uju	-1736
amat	-1737
▁bol	-1738
▁do	-1739
▁faq	-1740
▁raa	-1741
▁ruk	-1742
▁saz	-1743
▁sil	-1744
-e-az	-1745
-e-di	-1746
-e-mu	-1747
urqat	-1748
▁aur	-1749
▁avar	-1750
▁badi	-1751
▁baha	-1752
▁bane	-1753
▁itne	-1754
▁misl	-1755
▁padi	-1756
▁sake	-1757
▁tiir	-1758
▁tuut	-1759
▁zabt	-1760
▁ziya	-1761
-e-man	-1762
indagi	-1763
ustuju	-1764
▁aate	-1765
▁apna	-1766
▁chali	-1767
▁dhuan	-1768
▁gunah	-1769
▁hashr	-1770
▁kaho	-1771
▁khair	-1772
▁sabab	-1773
▁uthta	-1774
-e-hijr	-1775
▁andher	-1776
▁chamak	-1777
▁dikhai	-1778
▁gharib	-1779
▁guzre	-1780
▁kahna	-1781
▁karun	-1782
▁sharar	-1783
▁shokhi	-1784
▁tishna	-1785
▁tumhin	-1786
▁yaaro	-1787
-e-didar	-1788
-e-ulfat	-1789
▁anjuman	-1790
▁hargiz	-1791
fz	-1792
q	-1793
-az	-1794
ar	-1795
hil	-1796
▁nu	-1797
-ara	-1798
-kar	-1799
-o-s	-1800
alam	-1801
ati	-1802
gham	-1803
hosh	-1804
idan	-1805
nan	-1806
rshi	-1807
▁aql	-1808
▁dub	-1809
▁huj	-1810
▁mut	-1811
-e-af	-1812
-kash	-1813
▁darm	-1814
▁ehti	-1815
▁fais	-1816
▁har-	-1817
▁mita	-1818
▁tari	-1819
-e-vah	-1820
▁bane	-1821
▁baton	-1822
▁guzri	-1823
▁hunar	-1824
▁kitab	-1825
▁maana	-1826
▁mizaj	-1827
▁naala	-1828
▁qarib	-1829
▁vaste	-1830
-e-vasl	-1831
▁fasana	-1832
▁jinhen	-1833
▁pahle	-1834
▁saghar	-1835
-e-chash	-1836
-e-khuda	-1837
▁dekhna	-1838
▁ghuncha	-1839
▁imtihan	-1840
os	-1841
ehn	-1842
mai	-1843
ugu	-1844
ure	-1845
▁ag	-1846
▁ri	-1847
-far	-1848
-par	-1849
arab	-1850
qaza	-1851
vara	-1852
▁aa	-1853
▁hi	-1854
▁mub	-1855
▁say	-1856
▁tap	-1857
▁yad	-1858
-e-ru	-1859
hirin	-1860
masha	-1861
▁bujh	-1862
▁daal	-1863
▁dhal	-1864
▁luun	-1865
▁mahv	-1866
▁mast	-1867
▁pada	-1868
▁saaf	-1869
-ashna	-1870
-e-jam	-1871
-e-yak	-1872
-khvar	-1873
▁haram	-1874
▁khali	-1875
▁khauf	-1876
▁malum	-1877
▁paate	-1878
▁parde	-1879
▁rahi	-1880
▁sahab	-1881
-e-sham	-1882
▁be-kha	-1883
▁dekho	-1884
▁fitrat	-1885
▁garche	-1886
▁hangam	-1887
▁honge	-1888
▁javani	-1889
▁khula	-1890
▁manind	-1891
▁manzar	-1892
▁phirte	-1893
▁rakhta	-1894
▁sarapa	-1895
▁shisha	-1896
-e-qatil	-1897
-e-safar	-1898
▁hamesha	-1899
▁justuju	-1900
▁pahchan	-1901
▁darmiyan	-1902
ai	-1903
kl	-1904
vi	-1905
ha	-1906
ist	-1907
jat	-1908
kon	-1909
lal	-1910
naz	-1911
rah	-1912
vah	-1913
▁ub	-1914
-kam	-1915
-zar	-1916
alva	-1917
chal	-1918
mmat	-1919
▁aao	-1920
▁azi	-1921
▁bhe	-1922
▁dal	-1923
▁kaf	-1924
▁mad	-1925
▁sah	-1926
-o-ma	-1927
-para	-1928
tirab	-1929
▁kami	-1930
▁khil	-1931
▁lagi	-1932
▁rone	-1933
▁tarz	-1934
-e-bar	-1935
-e-zar	-1936
▁arman	-1937
▁be-sa	-1938
▁chaak	-1939
▁chal	-1940
▁dinon	-1941
▁gaiin	-1942
▁gulab	-1943
▁qissa	-1944
▁rahne	-1945
▁vaada	-1946
-e-alam	-1947
-e-inti	-1948
-e-kham	-1949
-e-saba	-1950
-e-subh	-1951
▁banaya	-1952
▁barbad	-1953
▁dekhne	-1954
▁gardan	-1955
▁jaane	-1956
▁kahani	-1957
▁kahin	-1958
▁khizan	-1959
▁kyuun	-1960
▁muddaa	-1961
▁paaya	-1962
▁rishta	-1963
-e-dost	-1964
▁bayaban	-1965
▁khanjar	-1966
▁muskura	-1967
-e-khayal	-1968
▁ikhtiyar	-1969
▁khamoshi	-1970
▁muqaddar	-1971
▁pairahan	-1972
ji	-1973
k	-1974
kn	-1975
qs	-1976
bah	-1977
dap	-1978
rad	-1979
-e-i	-1980
-man	-1981
-sar	-1982
dari	-1983
gahi	-1984
iyad	-1985
mkin	-1986
ushi	-1987
vane	-1988
yan	-1989
▁gan	-1990
▁jam	-1991
▁uja	-1992
-e-kh	-1993
alluq	-1994
rshid	-1995
▁din	-1996
▁jaao	-1997
▁marg	-1998
▁nala	-1999
▁sarv	-2000
▁taab	-2001
▁zehn	-2002
-e-pur	-2003
-guman	-2004
▁aziiz	-2005
▁baagh	-2006
▁bayan	-2007
▁chuke	-2008
▁dosti	-2009
▁hogi	-2010
▁judai	-2011
▁mila	-2012
▁nadan	-2013
▁sunte	-2014
▁tadap	-2015
▁uthae	-2016
▁vaala	-2017
▁yaqin	-2018
▁baaqi	-2019
▁faraz	-2020
▁firaq	-2021
▁havaon	-2022
▁kuchh	-2023
▁naghma	-2024
▁shoala	-2025
▁alam-e-	-2026
▁dhundte	-2027
▁nashsha	-2028
▁salamat	-2029
▁rahguzar	-2030
-z	-2031
jj	-2032
ow	-2033
ckn	-2034
gad	-2035
nab	-2036
qam	-2037
-e-l	-2038
ana	-2039
aron	-2040
usha	-2041
yari	-2042
▁cho	-2043
▁kin	-2044
▁mur	-2045
▁naf	-2046
-dari	-2047
-o-ha	-2048
-rang	-2049
chand	-2050
cknow	-2051
iyyat	-2052
▁duub	-2053
▁guft	-2054
▁jama	-2055
▁masi	-2056
▁para	-2057
▁pich	-2058
▁rind	-2059
▁samt	-2060
▁ulti	-2061
-e-lab	-2062
▁bazar	-2063
▁betab	-2064
▁faraz	-2065
▁ghata	-2066
▁girya	-2067
▁halqa	-2068
▁jaega	-2069
▁jiine	-2070
▁kaun	-2071
▁kiije	-2072
▁meri	-2073
▁nazuk	-2074
▁rahen	-2075
▁sahil	-2076
▁sikha	-2077
▁zarra	-2078
▁dar-o-	-2079
▁faisla	-2080
▁puchhe	-2081
▁shahid	-2082
▁taqaza	-2083
▁zindan	-2084
▁ziyada	-2085
▁agarche	-2086
▁khalvat	-2087
▁mohsin	-2088
▁tumhen	-2089
▁shab-e-f	-2090
▁bad-guman	-2091
eb	-2092
bur	-2093
dai	-2094
esu	-2095
ile	-2096
kas	-2097
rav	-2098
ye	-2099
zir	-2100
▁ur	-2101
-o-k	-2102
-rab	-2103
aman	-2104
ariz	-2105
tin	-2106
var	-2107
▁ash	-2108
▁bek	-2109
▁ise	-2110
▁ish	-2111
▁kaa	-2112
▁zid	-2113
yusuf	-2114
▁aave	-2115
▁adab	-2116
▁dila	-2117
▁hogi	-2118
▁hove	-2119
▁iman	-2120
▁kaan	-2121
▁kali	-2122
▁lafz	-2123
▁qaid	-2124
▁thak	-2125
-e-hal	-2126
-khane	-2127
▁aaina	-2128
▁dega	-2129
▁dekhi	-2130
▁dost	-2131
▁hansi	-2132
▁likha	-2133
▁mitti	-2134
▁munta	-2135
▁saara	-2136
▁shukr	-2137
▁viran	-2138
▁yaron	-2139
-e-gul	-2140
▁bas-ki	-2141
▁begana	-2142
▁dikhla	-2143
▁hasil	-2144
▁jaise	-2145
▁kahun	-2146
▁miyan	-2147
▁puchho	-2148
▁sanvar	-2149
▁varna	-2150
▁chandni	-2151
▁khamosh	-2152
▁mehrban	-2153
-za	-2154
adu	-2155
di	-2156
lif	-2157
▁ib	-2158
-e-v	-2159
ani	-2160
araq	-2161
inon	-2162
▁aks	-2163
▁gun	-2164
▁guz	-2165
▁lah	-2166
▁sai	-2167
▁soc	-2168
▁til	-2169
▁uzr	-2170
-e-at	-2171
▁aaen	-2172
▁aish	-2173
▁daad	-2174
▁jazb	-2175
▁jurm	-2176
▁laut	-2177
▁leta	-2178
▁luut	-2179
▁mana	-2180
▁masa	-2181
▁mili	-2182
▁qadr	-2183
▁taar	-2184
▁zulm	-2185
-e-but	-2186
-e-sad	-2187
▁aftab	-2188
▁akela	-2189
▁banta	-2190
▁bimar	-2191
▁chhan	-2192
▁daava	-2193
▁jalve	-2194
▁jhuka	-2195
▁jiite	-2196
▁kamar	-2197
▁maani	-2198
▁masti	-2199
▁misal	-2200
▁naale	-2201
▁pade	-2202
▁palat	-2203
▁qafas	-2204
▁rahat	-2205
▁sakta	-2206
▁shakl	-2207
▁tufan	-2208
▁visal	-2209
▁be-kar	-2210
▁haath	-2211
▁hairan	-2212
▁jaenge	-2213
▁kashti	-2214
▁pyare	-2215
▁sayyad	-2216
▁taqdir	-2217
▁thahra	-2218
▁ya-rab	-2219
-e-hayat	-2220
-e-ishq	-2221
-e-shama	-2222
▁guftugu	-2223
▁rukhsat	-2224
▁sadiyon	-2225
▁har-chand	-2226
aj	-2227
-ja	-2228
-la	-2229
lis	-2230
sal	-2231
▁ij	-2232
▁uq	-2233
flat	-2234
mani	-2235
ubul	-2236
umid	-2237
▁aza	-2238
▁dus	-2239
▁huk	-2240
▁lau	-2241
▁nan	-2242
▁pak	-2243
▁tad	-2244
▁taz	-2245
▁zor	-2246
-e-ah	-2247
-kada	-2248
-o-sa	-2249
gahon	-2250
sibat	-2251
ushta	-2252
zaban	-2253
▁aram	-2254
▁bosa	-2255
▁chad	-2256
▁chak	-2257
▁haar	-2258
▁kuch	-2259
▁maar	-2260
▁nazm	-2261
▁paai	-2262
▁pher	-2263
▁sahl	-2264
▁sata	-2265
-e-miz	-2266
-e-tan	-2267
iyega	-2268
▁auron	-2269
▁badha	-2270
▁barpa	-2271
▁dekh	-2272
▁ganva	-2273
▁garmi	-2274
▁ilzam	-2275
▁jaun	-2276
▁kamal	-2277
▁khula	-2278
▁kiran	-2279
▁mere	-2280
▁muqab	-2281
▁namak	-2282
▁rafta	-2283
▁rahti	-2284
▁saval	-2285
▁sukun	-2286
▁vahin	-2287
▁zahid	-2288
-e-khan	-2289
▁badla	-2290
▁barish	-2291
▁hausla	-2292
▁honton	-2293
▁intiha	-2294
▁janan	-2295
▁kahiye	-2296
▁mange	-2297
▁paiman	-2298
▁panch	-2299
-e-karam	-2300
-e-sahra	-2301
-e-shahr	-2302
▁be-niya	-2303
▁duniya	-2304
▁jaenge	-2305
▁maalum	-2306
▁musibat	-2307
▁nigahon	-2308
▁shabnam	-2309
▁shikast	-2310
-e-intizar	-2311
▁be-khabar	-2312
pe	-2313
qe	-2314
ail	-2315
gis	-2316
iid	-2317
mon	-2318
ud	-2319
yab	-2320
▁ju	-2321
-o-j	-2322
-pas	-2323
-var	-2324
bada	-2325
char	-2326
hiqi	-2327
khab	-2328
mana	-2329
ozan	-2330
shad	-2331
shir	-2332
usat	-2333
usta	-2334
▁beh	-2335
▁dur	-2336
▁rau	-2337
▁tur	-2338
-e-am	-2339
-e-ku	-2340
-numa	-2341
innat	-2342
laqat	-2343
maish	-2344
▁abas	-2345
▁adam	-2346
▁barg	-2347
▁deti	-2348
▁gada	-2349
▁gale	-2350
▁maha	-2351
▁mard	-2352
-e-ahl	-2353
▁basar	-2354
▁darte	-2355
▁dete	-2356
▁dhoka	-2357
▁duur	-2358
▁honge	-2359
▁hoti	-2360
▁iqrar	-2361
▁jalte	-2362
▁jamal	-2363
▁jitne	-2364
▁kucha	-2365
▁kuche	-2366
▁lena	-2367
▁marha	-2368
▁musal	-2369
▁nashe	-2370
▁qarar	-2371
▁qubul	-2372
▁sanna	-2373
▁sukut	-2374
▁vusat	-2375
▁yaad	-2376
-e-fana	-2377
-e-gard	-2378
-e-khud	-2379
-e-rukh	-2380
▁chalo	-2381
▁daulat	-2382
▁divane	-2383
▁jangal	-2384
▁kaise	-2385
▁karvan	-2386
▁khatra	-2387
▁lakhon	-2388
▁maqtal	-2389
▁rusvai	-2390
▁surat	-2391
-e-chara	-2392
-e-daman	-2393
-e-jalva	-2394
-e-khvab	-2395
▁afsurda	-2396
▁dushvar	-2397
▁fariyad	-2398
▁hazaron	-2399
▁puchhte	-2400
▁be-khudi	-2401
▁takalluf	-2402
-e-tamasha	-2403
▁nigah-e-naz	-2404
-r	-2405
-qa	-2406
be-	-2407
ega	-2408
isa	-2409
sh	-2410
umi	-2411
zib	-2412
▁me	-2413
-dan	-2414
chon	-2415
hijr	-2416
▁adu	-2417
▁bij	-2418
▁ilm	-2419
▁ira	-2420
▁nam	-2421
▁ret	-2422
▁sid	-2423
▁tai	-2424
▁ulj	-2425
-e-lu	-2426
garna	-2427
▁aap	-2428
▁bagh	-2429
▁dene	-2430
▁dhar	-2431
▁diin	-2432
▁farq	-2433
▁gesu	-2434
▁hali	-2435
▁jaga	-2436
▁khas	-2437
▁lene	-2438
▁nuur	-2439
▁qais	-2440
▁raas	-2441
▁sair	-2442
▁vaqi	-2443
-e-bad	-2444
▁anjam	-2445
▁baare	-2446
▁baat	-2447
▁bahal	-2448
▁chaha	-2449
▁chhin	-2450
▁dahan	-2451
▁fitna	-2452
▁ghadi	-2453
▁guhar	-2454
▁jise	-2455
▁jitna	-2456
▁kabhu	-2457
▁kahi	-2458
▁karam	-2459
▁khatm	-2460
▁lamha	-2461
▁maara	-2462
▁marta	-2463
▁milte	-2464
▁mujhi	-2465
▁phail	-2466
▁pyaas	-2467
▁qabil	-2468
▁rang	-2469
▁siva	-2470
▁suun	-2471
▁thodi	-2472
▁umiid	-2473
▁vaade	-2474
▁zarur	-2475
-e-dil	-2476
▁barham	-2477
▁behtar	-2478
▁charkh	-2479
▁chhoda	-2480
▁fughan	-2481
▁furqat	-2482
▁ghulam	-2483
▁mumkin	-2484
▁nashat	-2485
▁talvar	-2486
▁nikalte	-2487
▁vagarna	-2488
-e-hasrat	-2489
▁be-qarar	-2490
▁nama-bar	-2491
-e-lucknow	-2492
-e-zindagi	-2493
▁pahunche	-2494
-as	-2495
-fa	-2496
-ju	-2497
bir	-2498
hne	-2499
jaz	-2500
jid	-2501
khm	-2502
ron	-2503
sas	-2504
uba	-2505
und	-2506
▁zi	-2507
-ban	-2508
-baz	-2509
-fis	-2510
-kas	-2511
bani	-2512
bish	-2513
gari	-2514
ghon	-2515
hbat	-2516
kana	-2517
mehr	-2518
nuz	-2519
shak	-2520
unga	-2521
▁ama	-2522
▁ang	-2523
▁jum	-2524
▁nib	-2525
▁sat	-2526
▁val	-2527
-e-te	-2528
liyan	-2529
▁ajal	-2530
▁ba-j	-2531
▁bula	-2532
▁daam	-2533
▁jaag	-2534
▁khub	-2535
▁laae	-2536
▁nadi	-2537
▁pech	-2538
▁qaba	-2539
▁raho	-2540
▁rote	-2541
▁shan	-2542
▁sula	-2543
▁uthe	-2544
-e-har	-2545
-e-raz	-2546
▁afsos	-2547
▁avara	-2548
▁avval	-2549
▁guzra	-2550
▁harif	-2551
▁iqbal	-2552
▁janib	-2553
▁javan	-2554
▁kaman	-2555
▁khizr	-2556
▁labon	-2557
▁marna	-2558
▁mile	-2559
▁nihan	-2560
▁siina	-2561
▁unhin	-2562
▁vaise	-2563
▁vajud	-2564
▁yusuf	-2565
-e-bada	-2566
-e-lala	-2567
-e-pare	-2568
-e-sang	-2569
▁akhiri	-2570
▁dekhun	-2571
▁dimagh	-2572
▁gharaz	-2573
▁ghurur	-2574
▁hunuz	-2575
▁jannat	-2576
▁kahte	-2577
▁khulta	-2578
▁kijiye	-2579
▁majnun	-2580
▁mehman	-2581
▁mushta	-2582
▁phiri	-2583
▁puchha	-2584
▁rah-ra	-2585
▁rahzan	-2586
▁shajar	-2587
▁sohbat	-2588
▁thahri	-2589
-e-ashiq	-2590
-e-nihan	-2591
-e-siyah	-2592
▁ashiyan	-2593
▁avargi	-2594
▁baithe	-2595
▁galiyon	-2596
▁ghaflat	-2597
▁hangama	-2598
▁khayal	-2599
▁mizhgan	-2600
▁muqabil	-2601
▁rahnuma	-2602
▁sar-ba-	-2603
▁taalluq	-2604
-e-manzil	-2605
▁dil-e-na	-2606
▁khurshid	-2607
-e-gham-e-	-2608
-e-vahshat	-2609
▁ham-safar	-2610
-e-lucknow	-2611
-e-pareshan	-2612
-n	-2613
-t	-2614
je	-2615
bai	-2616
dak	-2617
guf	-2618
nai	-2619
ni	-2620
osa	-2621
sam	-2622
sil	-2623
ufi	-2624
uja	-2625
-gir	-2626
gani	-2627
ghal	-2628
ghat	-2629
hare	-2630
hira	-2631
ista	-2632
nabi	-2633
▁bii	-2634
▁dab	-2635
▁dan	-2636
▁qal	-2637
▁uch	-2638
-e-iz	-2639
-zada	-2640
hijab	-2641
jazat	-2642
lahat	-2643
udrat	-2644
um-e-	-2645
▁aine	-2646
▁alam	-2647
▁bade	-2648
▁basa	-2649
▁bhig	-2650
▁dara	-2651
▁haya	-2652
▁mata	-2653
▁safa	-2654
▁shad	-2655
▁vasi	-2656
-ba-ru	-2657
-e-bal	-2658
-e-kaf	-2659
-e-nau	-2660
-e-pai	-2661
-e-sab	-2662
▁andar	-2663
▁angan	-2664
▁baham	-2665
▁bhare	-2666
▁bigad	-2667
▁buton	-2668
▁chaal	-2669
▁girah	-2670
▁inkar	-2671
▁jiina	-2672
▁kahna	-2673
▁kahti	-2674
▁khule	-2675
▁khuli	-2676
▁matam	-2677
▁naam	-2678
▁raho	-2679
▁sabza	-2680
▁shart	-2681
▁shola	-2682
▁siyah	-2683
▁taaza	-2684
▁taron	-2685
▁tilis	-2686
▁tuute	-2687
▁ubhar	-2688
▁zara	-2689
-e-bazm	-2690
-e-dahr	-2691
-e-dast	-2692
-e-khal	-2693
-e-saqi	-2694
-e-shar	-2695
-kharab	-2696
▁aghosh	-2697
▁ajnabi	-2698
▁ashkon	-2699
▁bismil	-2700
▁gauhar	-2701
▁himmat	-2702
▁ishara	-2703
▁jaate	-2704
▁karish	-2705
▁masjid	-2706
▁mubara	-2707
▁qurban	-2708
▁sitare	-2709
▁zaruri	-2710
-e-visal	-2711
▁bandhte	-2712
▁dekhun	-2713
▁mahshar	-2714
▁puchhta	-2715
▁sitaron	-2716
▁thikana	-2717
▁dar-o-di	-2718
▁dushmani	-2719
▁ru-ba-ru	-2720
-e-mizhgan	-2721
-e-sukhan	-2722
▁charaghan	-2723
▁ham-nashin	-2724
-an	-2725
ka	-2726
khl	-2727
lim	-2728
oge	-2729
ogh	-2730
shu	-2731
sir	-2732
sse	-2733
ula	-2734
ved	-2735
-e-n	-2736
atan	-2737
enat	-2738
engi	-2739
hmat	-2740
khun	-2741
sta	-2742
ulan	-2743
▁aib	-2744
▁ain	-2745
▁akh	-2746
▁daf	-2747
▁di	-2748
▁fan	-2749
▁hir	-2750
▁ped	-2751
▁vir	-2752
-e-um	-2753
-o-pa	-2754
-o-ta	-2755
ghyar	-2756
hufta	-2757
hunar	-2758
▁diid	-2759
▁fana	-2760
▁ilti	-2761
▁isti	-2762
▁jaur	-2763
▁kaif	-2764
▁len	-2765
▁maaz	-2766
▁mahr	-2767
▁muft	-2768
▁paae	-2769
▁paik	-2770
▁rona	-2771
▁rula	-2772
▁said	-2773
▁siin	-2774
▁use	-2775
▁vada	-2776
-e-gir	-2777
-o-kha	-2778
-o-tab	-2779
-shana	-2780
▁aaega	-2781
▁ahval	-2782
▁azaab	-2783
▁badle	-2784
▁bahla	-2785
▁baras	-2786
▁bedar	-2787
▁chain	-2788
▁daana	-2789
▁dena	-2790
▁dukan	-2791
▁ehsas	-2792
▁farma	-2793
▁jaadu	-2794
▁jaegi	-2795
▁jhuut	-2796
▁khudi	-2797
▁marte	-2798
▁milna	-2799
▁na-ta	-2800
▁payam	-2801
▁rahin	-2802
▁sadgi	-2803
▁shana	-2804
▁socha	-2805
▁sunta	-2806
▁talib	-2807
▁tukde	-2808
▁yaaro	-2809
-afshan	-2810
-e-dagh	-2811
-e-dush	-2812
-e-khak	-2813
▁bhulne	-2814
▁ijazat	-2815
▁jalib	-2816
▁jidhar	-2817
▁jigar	-2818
▁kaenat	-2819
▁kaghaz	-2820
▁khanda	-2821
▁majbur	-2822
▁mohsin	-2823
▁palkon	-2824
▁raten	-2825
▁sharma	-2826
▁shirin	-2827
▁sochta	-2828
▁taklif	-2829
▁taskin	-2830
-e-atish	-2831
ikhtiyar	-2832
▁ba-rang	-2833
▁bandagi	-2834
▁ghairat	-2835
▁gharaz	-2836
▁iztirab	-2837
▁karega	-2838
▁koshish	-2839
▁mubarak	-2840
▁mulaqat	-2841
▁mushtaq	-2842
▁nigahen	-2843
▁paigham	-2844
▁parvana	-2845
▁rakkhe	-2846
▁tasalli	-2847
-e-chashm	-2848
▁be-sabab	-2849
▁gulistan	-2850
▁mai-kade	-2851
▁zakhm-e-	-2852
-e-chaman	-2853
-e-sharab	-2854
▁hal-e-dil	-2855
dh	-2856
mo	-2857
zu	-2858
-re	-2859
-va	-2860
abe	-2861
ae	-2862
faq	-2863
hib	-2864
pak	-2865
rib	-2866
roz	-2867
sad	-2868
sub	-2869
sum	-2870
tin	-2871
ul	-2872
vas	-2873
▁qi	-2874
bala	-2875
chin	-2876
jjoh	-2877
lajh	-2878
suon	-2879
tida	-2880
zara	-2881
zari	-2882
▁dah	-2883
▁gin	-2884
▁ina	-2885
▁kaj	-2886
▁lo	-2887
▁num	-2888
▁riz	-2889
▁sap	-2890
▁tul	-2891
-ahis	-2892
-ba-k	-2893
-khud	-2894
-o-ra	-2895
hshar	-2896
tamam	-2897
unnar	-2898
▁abru	-2899
▁cham	-2900
▁gaah	-2901
▁ham-	-2902
▁hon	-2903
▁khir	-2904
▁kisu	-2905
▁nikl	-2906
▁padh	-2907
▁phun	-2908
▁pila	-2909
▁qarz	-2910
▁qaza	-2911
▁rasm	-2912
▁rast	-2913
▁sab	-2914
▁sail	-2915
▁sali	-2916
▁sarf	-2917
▁saya	-2918
▁siya	-2919
▁utna	-2920
▁zoaf	-2921
-e-guf	-2922
-e-kam	-2923
-e-maj	-2924
-e-nam	-2925
-e-zab	-2926
-o-par	-2927
▁aadat	-2928
▁aahat	-2929
▁aati	-2930
▁ba-za	-2931
▁bijli	-2932
▁chaun	-2933
▁chhut	-2934
▁dayar	-2935
▁ghani	-2936
▁haae	-2937
▁ilaaj	-2938
▁ilahi	-2939
▁kaabe	-2940
▁kalam	-2941
▁khara	-2942
▁kiye	-2943
▁mange	-2944
▁mayus	-2945
▁mizha	-2946
▁mohta	-2947
▁nakam	-2948
▁rakha	-2949
▁raten	-2950
▁raton	-2951
▁saada	-2952
▁sakte	-2953
▁sarab	-2954
▁shaad	-2955
▁sheva	-2956
▁ujala	-2957
▁ulajh	-2958
▁uthte	-2959
▁utthe	-2960
▁yuun	-2961
-e-adam	-2962
-e-arzu	-2963
-e-jafa	-2964
-e-khas	-2965
▁afsana	-2966
▁ansuon	-2967
▁baten	-2968
▁chahat	-2969
▁doston	-2970
▁farish	-2971
▁janen	-2972
▁janiye	-2973
▁karna	-2974
▁khushk	-2975
▁kohkan	-2976
▁masiha	-2977
▁nafrat	-2978
▁nazren	-2979
▁nisbat	-2980
▁pahcha	-2981
▁phirta	-2982
▁qurbat	-2983
▁rangin	-2984
▁shishe	-2985
▁sitara	-2986
▁tahzib	-2987
▁tanha	-2988
-ahista	-2989
-e-ghair	-2990
-e-janan	-2991
▁ahista	-2992
▁barabar	-2993
▁ghairon	-2994
▁hamdam	-2995
▁jumbish	-2996
▁kharab	-2997
▁lijiye	-2998
-e-bismil	-2999
-e-mahfil	-3000
m-e-jigar	-3001
▁khamushi	-3002
▁muntazir	-3003
▁sitamgar	-3004
-e-mahshar	-3005
▁shab-e-gham	-3006
▁ahista-ahista	-3007
ap	-3008
tu	-3009
-al	-3010
-gu	-3011
-mi	-3012
anu	-3013
ghr	-3014
hum	-3015
mul	-3016
ne	-3017
shn	-3018
ti	-3019
ufr	-3020
vai	-3021
▁gi	-3022
▁uf	-3023
adon	-3024
ari	-3025
asar	-3026
bari	-3027
egan	-3028
hid	-3029
itan	-3030
kane	-3031
khir	-3032
labi	-3033
shaq	-3034
sish	-3035
usar	-3036
yyam	-3037
▁ara	-3038
▁big	-3039
▁lip	-3040
▁mod	-3041
▁mul	-3042
▁muz	-3043
▁nuq	-3044
▁pir	-3045
-bhar	-3046
-e-an	-3047
-e-ar	-3048
-e-is	-3049
-khur	-3050
-o-bu	-3051
faqat	-3052
hayat	-3053
irang	-3054
uddaa	-3055
▁ande	-3056
▁azal	-3057
▁bojh	-3058
▁dars	-3059
▁gosh	-3060
▁jhan	-3061
▁jhon	-3062
▁laal	-3063
▁lash	-3064
▁luta	-3065
▁maas	-3066
▁nang	-3067
▁paar	-3068
▁phan	-3069
▁rabt	-3070
▁rota	-3071
▁saaz	-3072
▁saja	-3073
▁sune	-3074
▁taur	-3075
▁vaae	-3076
▁vaah	-3077
▁vaar	-3078
▁vale	-3079
-e-haq	-3080
-kusha	-3081
-parda	-3082
bassum	-3083
ram-e-	-3084
ravvat	-3085
▁ashar	-3086
▁baith	-3087
▁chura	-3088
▁duaen	-3089
▁inhin	-3090
▁khubi	-3091
▁laga	-3092
▁lagte	-3093
▁lahu	-3094
▁lamhe	-3095
▁maang	-3096
▁musha	-3097
▁nagar	-3098
▁nigar	-3099
▁nisar	-3100
▁paata	-3101
▁qalam	-3102
▁qamat	-3103
▁surma	-3104
▁teri	-3105
▁tuuta	-3106
▁utha	-3107
▁vasim	-3108
▁vatan	-3109
▁yadon	-3110
-e-mauj	-3111
-e-sada	-3112
-parast	-3113
▁akbar	-3114
▁ba-juz	-3115
▁be-dil	-3116
▁bekasi	-3117
▁dil-la	-3118
▁dilbar	-3119
▁farhad	-3120
▁gulzar	-3121
▁hargiz	-3122
▁kahen	-3123
▁kamyab	-3124
▁kanton	-3125
▁karvat	-3126
▁parvaz	-3127
▁phulon	-3128
▁pinhan	-3129
▁qudrat	-3130
▁rauzan	-3131
▁shabab	-3132
▁shaguf	-3133
▁sharik	-3134
▁shikar	-3135
▁shumar	-3136
▁takrar	-3137
▁thiin	-3138
▁thokar	-3139
▁tohmat	-3140
▁vasim	-3141
-e-giran	-3142
-e-hunar	-3143
-e-qadam	-3144
-e-sozan	-3145
-e-talab	-3146
▁azmaish	-3147
▁baghair	-3148
▁jaunga	-3149
▁khinch	-3150
▁khinchi	-3151
▁khvabon	-3152
-e-khatir	-3153
▁ghanimat	-3154
▁giraftar	-3155
▁maslahat	-3156
▁muddaton	-3157
▁muravvat	-3158
-e-charagh	-3159
▁be-qarari	-3160
▁charaghon	-3161
-e-rahguzar	-3162
▁dard-e-dil	-3163
▁gham-khvar	-3164
▁sar-ba-sar	-3165
▁shab-e-furqat	-3166
▁mauj-e-sharab	-3167
f	-3168
fu	-3169
▁y	-3170
-go	-3171
-si	-3172
al	-3173
ba	-3174
bub	-3175
dah	-3176
dud	-3177
hre	-3178
kat	-3179
khe	-3180
lan	-3181
raz	-3182
sus	-3183
uth	-3184
▁ze	-3185
-san	-3186
dani	-3187
dast	-3188
inan	-3189
mast	-3190
sila	-3191
tabi	-3192
usun	-3193
yyar	-3194
▁dad	-3195
▁hin	-3196
▁nim	-3197
▁qaf	-3198
▁ram	-3199
▁sal	-3200
▁ung	-3201
-dast	-3202
irana	-3203
unga	-3204
venge	-3205
▁baab	-3206
▁bhed	-3207
▁den	-3208
▁dena	-3209
▁lena	-3210
▁moti	-3211
▁muam	-3212
▁naha	-3213
▁narm	-3214
▁phen	-3215
▁rahm	-3216
▁raza	-3217
▁reza	-3218
▁sard	-3219
▁taam	-3220
▁umid	-3221
▁vahm	-3222
-e-ada	-3223
-e-din	-3224
-mizaj	-3225
-o-dar	-3226
-o-sha	-3227
makash	-3228
sheman	-3229
urdagi	-3230
▁apne	-3231
▁becha	-3232
▁bhar	-3233
▁bhara	-3234
▁chhal	-3235
▁chuki	-3236
▁dusra	-3237
▁habab	-3238
▁janab	-3239
▁jazba	-3240
▁jurat	-3241
▁kasha	-3242
▁khaai	-3243
▁khaar	-3244
▁khada	-3245
▁khade	-3246
▁lakht	-3247
▁libas	-3248
▁musht	-3249
▁naqab	-3250
▁paas	-3251
▁padta	-3252
▁pukar	-3253
▁rauna	-3254
▁ruuth	-3255
▁sada	-3256
▁sajan	-3257
▁salam	-3258
▁socho	-3259
▁subuk	-3260
▁takra	-3261
▁tasir	-3262
▁uthti	-3263
▁vaalo	-3264
-e-bala	-3265
-e-niya	-3266
khtasar	-3267
▁badnam	-3268
▁bahana	-3269
▁bar-ha	-3270
▁bashar	-3271
▁buland	-3272
▁chadar	-3273
▁chhanv	-3274
▁farogh	-3275
▁gavara	-3276
▁ghalat	-3277
▁hamdam	-3278
▁ibtida	-3279
▁jahan	-3280
▁jam-e-	-3281
▁khudai	-3282
▁khusha	-3283
▁mahtab	-3284
▁maidan	-3285
▁masala	-3286
▁minnat	-3287
▁nargis	-3288
▁nikhat	-3289
▁phuul	-3290
▁raegan	-3291
▁ravish	-3292
▁sakte	-3293
▁shaam	-3294
▁shamil	-3295
▁tadbir	-3296
▁uchhal	-3297
▁zulfon	-3298
-e-butan	-3299
-e-divar	-3300
-e-firaq	-3301
-e-havas	-3302
-e-insan	-3303
▁badalte	-3304
▁bevafai	-3305
▁bharosa	-3306
▁divanon	-3307
▁ehtiyat	-3308
▁karobar	-3309
▁kijiye	-3310
▁zarurat	-3311
-e-dariya	-3312
-e-khanda	-3313
-e-kushta	-3314
-e-majnun	-3315
▁dil-lagi	-3316
▁hujum-e-	-3317
▁mohtasib	-3318
▁musalman	-3319
▁samajhta	-3320
▁dar-parda	-3321
▁mukhtasar	-3322
-e-taghaful	-3323
▁fasl-e-gul	-3324
▁naqsh-e-pa	-3325
jd	-3326
ze	-3327
-am	-3328
-di	-3329
afi	-3330
at	-3331
fiq	-3332
gun	-3333
hit	-3334
il	-3335
jan	-3336
ken	-3337
khr	-3338
kti	-3339
laq	-3340
mi	-3341
ost	-3342
pan	-3343
thi	-3344
yak	-3345
yaz	-3346
▁dh	-3347
▁no	-3348
-ada	-3349
-gun	-3350
-jan	-3351
-o-d	-3352
-saz	-3353
alon	-3354
anda	-3355
hiyo	-3356
hrir	-3357
iman	-3358
tala	-3359
uran	-3360
usur	-3361
vaza	-3362
▁aam	-3363
▁kir	-3364
▁mam	-3365
▁mua	-3366
▁sul	-3367
▁thu	-3368
▁tut	-3369
▁vo	-3370
-azma	-3371
-bari	-3372
-e-ij	-3373
-e-il	-3374
-gari	-3375
-o-ba	-3376
-o-na	-3377
andar	-3378
stana	-3379
vaida	-3380
vatan	-3381
▁alag	-3382
▁anda	-3383
▁anis	-3384
▁arzu	-3385
▁aziz	-3386
▁bais	-3387
▁chin	-3388
▁chot	-3389
▁chuk	-3390
▁dahr	-3391
▁dari	-3392
▁farz	-3393
▁gaam	-3394
▁hirs	-3395
▁hukm	-3396
▁jiye	-3397
▁kufr	-3398
▁laai	-3399
▁lala	-3400
▁mir	-3401
▁naza	-3402
▁niya	-3403
▁qurb	-3404
▁rab	-3405
▁raqs	-3406
▁rava	-3407
▁rizq	-3408
▁saal	-3409
▁sina	-3410
▁suni	-3411
▁taan	-3412
▁uqda	-3413
▁ustu	-3414
▁vajh	-3415
▁yaas	-3416
▁zaat	-3417
▁zard	-3418
-e-bul	-3419
-e-ham	-3420
-e-roz	-3421
-e-zul	-3422
-karda	-3423
-navaz	-3424
-o-dil	-3425
-o-gul	-3426
▁aabru	-3427
▁aaegi	-3428
▁aaine	-3429
▁aghaz	-3430
▁ahbab	-3431
▁bhule	-3432
▁bichh	-3433
▁chhat	-3434
▁chuur	-3435
▁dhara	-3436
▁diida	-3437
▁dilru	-3438
▁fitne	-3439
▁giran	-3440
▁hujum	-3441
▁huzur	-3442
▁izhar	-3443
▁jaan	-3444
▁jaisi	-3445
▁jashn	-3446
▁jyuun	-3447
▁kaaba	-3448
▁kaha	-3449
▁lagi	-3450
▁muhal	-3451
▁musta	-3452
▁pahli	-3453
▁phire	-3454
▁pyasa	-3455
▁qafil	-3456
▁qasid	-3457
▁qimat	-3458
▁raat	-3459
▁rahna	-3460
▁ravan	-3461
▁sajda	-3462
▁shaan	-3463
▁shaer	-3464
▁shara	-3465
▁surur	-3466
▁takht	-3467
▁thoda	-3468
▁tirgi	-3469
▁tuuti	-3470
▁vaisi	-3471
▁varaq	-3472
▁ziyan	-3473
-e-amal	-3474
-e-ashk	-3475
-e-baqa	-3476
-e-nala	-3477
-e-qaba	-3478
-e-ranj	-3479
-e-shor	-3480
-pasand	-3481
-shanas	-3482
▁adavat	-3483
▁akhbar	-3484
▁ashiqi	-3485
▁barsat	-3486
▁barson	-3487
▁bataun	-3488
▁chahte	-3489
▁chalta	-3490
▁chalte	-3491
▁daftar	-3492
▁dekhe	-3493
▁guzri	-3494
▁hanste	-3495
▁jaati	-3496
▁jhalak	-3497
▁laaya	-3498
▁lamhon	-3499
▁majlis	-3500
▁paanv	-3501
▁rakkhe	-3502
▁sahara	-3503
▁suragh	-3504
▁tamam	-3505
▁uthaya	-3506
▁zafar	-3507
▁zunnar	-3508
-e-haram	-3509
-e-jamal	-3510
-e-khana	-3511
-e-khush	-3512
-e-qafas	-3513
-e-rafta	-3514
▁achchhe	-3515
▁andhere	-3516
▁bandha	-3517
▁karenge	-3518
▁karunga	-3519
▁mashhur	-3520
▁maujud	-3521
▁nishani	-3522
▁pursish	-3523
▁rakhte	-3524
▁rakkha	-3525
▁samjha	-3526
▁silsila	-3527
▁zakhmon	-3528
-e-shikas	-3529
-e-shirin	-3530
▁ba-zahir	-3531
▁be-hijab	-3532
▁charagh	-3533
▁gunahgar	-3534
▁karishma	-3535
▁na-tamam	-3536
▁shamshir	-3537
▁tavajjoh	-3538
-e-qayamat	-3539
▁dil-e-be-	-3540
▁mai-khana	-3541
▁pahuncha	-3542
▁sharminda	-3543
▁mohabbaton	-3544
-e-chashm-e-	-3545
▁dar-o-divar	-3546
bz	-3547
mu	-3548
-mu	-3549
asr	-3550
dal	-3551
dik	-3552
dis	-3553
gir	-3554
hob	-3555
im	-3556
ita	-3557
iyo	-3558
kir	-3559
lad	-3560
mas	-3561
pas	-3562
sud	-3563
tav	-3564
▁ad	-3565
▁ir	-3566
-bas	-3567
-bin	-3568
-zan	-3569
arat	-3570
dana	-3571
dava	-3572
ddat	-3573
gane	-3574
gira	-3575
guna	-3576
hera	-3577
hire	-3578
hrat	-3579
khud	-3580
qadr	-3581
sht	-3582
tara	-3583
vaz	-3584
zakh	-3585
▁aas	-3586
▁aya	-3587
▁bea	-3588
▁bho	-3589
▁bit	-3590
▁gor	-3591
▁kun	-3592
▁pho	-3593
▁sik	-3594
▁zil	-3595
▁zin	-3596
-bakh	-3597
-bazi	-3598
-e-ga	-3599
-e-ti	-3600
-kade	-3601
-khez	-3602
-o-ja	-3603
-o-la	-3604
-o-si	-3605
-sanj	-3606
-vash	-3607
diyon	-3608
hadat	-3609
hiyon	-3610
ishen	-3611
jahan	-3612
kiyan	-3613
parva	-3614
stagi	-3615
ungi	-3616
zamin	-3617
▁amad	-3618
▁bahi	-3619
▁bani	-3620
▁bina	-3621
▁chhe	-3622
▁daba	-3623
▁dair	-3624
▁dhad	-3625
▁ghat	-3626
▁huur	-3627
▁jale	-3628
▁jang	-3629
▁khid	-3630
▁mara	-3631
▁masr	-3632
▁nagh	-3633
▁pach	-3634
▁paya	-3635
▁piya	-3636
▁rafu	-3637
▁roya	-3638
▁taba	-3639
▁ulat	-3640
-e-arz	-3641
-e-bam	-3642
-e-dam	-3643
-e-did	-3644
-e-do-	-3645
-e-fit	-3646
-e-nim	-3647
-e-tah	-3648
-khvah	-3649
-khvan	-3650
-nafas	-3651
-o-kar	-3652
urezan	-3653
▁agar	-3654
▁akasr	-3655
▁badla	-3656
▁bandh	-3657
▁batae	-3658
▁batao	-3659
▁bedad	-3660
▁chaho	-3661
▁denge	-3662
▁dhyan	-3663
▁faqir	-3664
▁fusun	-3665
▁gaanv	-3666
▁gosha	-3667
▁hisse	-3668
▁hona	-3669
▁izzat	-3670
▁jabin	-3671
▁kaafi	-3672
▁kafan	-3673
▁lagae	-3674
▁maghr	-3675
▁mashq	-3676
▁murgh	-3677
▁nasim	-3678
▁numud	-3679
▁paban	-3680
▁pada	-3681
▁pagal	-3682
▁parva	-3683
▁pichh	-3684
▁qusur	-3685
▁raqam	-3686
▁sahib	-3687
▁sivae	-3688
▁suno	-3689
▁talkh	-3690
▁taufi	-3691
▁unvan	-3692
▁yahin	-3693
▁zarre	-3694
▁ziist	-3695
-e-bagh	-3696
-e-fikr	-3697
-e-hina	-3698
-e-khar	-3699
-e-marg	-3700
-e-mehr	-3701
-e-naz	-3702
-e-tegh	-3703
-farosh	-3704
-gashta	-3705
-nigahi	-3706
-shikan	-3707
▁aalam	-3708
▁ashna	-3709
▁ashnai	-3710
▁aziiz	-3711
▁bahane	-3712
▁bahar	-3713
▁chalna	-3714
▁dhuan	-3715
▁dunga	-3716
▁gharat	-3717
▁hamen	-3718
▁havaen	-3719
▁hotin	-3720
▁inayat	-3721
▁ishare	-3722
▁jaisa	-3723
▁kaisi	-3724
▁khud-k	-3725
▁likkha	-3726
▁maana	-3727
▁maang	-3728
▁mansub	-3729
▁manzur	-3730
▁mazhab	-3731
▁mehnat	-3732
▁namak	-3733
▁nasir	-3734
▁nazdik	-3735
▁phirti	-3736
▁qafila	-3737
▁qafile	-3738
▁rahbar	-3739
▁rahega	-3740
▁saliqa	-3741
-e-ayyam	-3742
-e-digar	-3743
-e-khara	-3744
-fishani	-3745
takalluf	-3746
▁andesha	-3747
▁ashufta	-3748
▁ba-qadr	-3749
▁bakhsha	-3750
▁chhoda	-3751
▁divangi	-3752
▁faqiron	-3753
▁ghurbat	-3754
▁guzarne	-3755
▁kharabi	-3756
▁khinche	-3757
▁khirman	-3758
▁likhna	-3759
▁paimana	-3760
▁rahega	-3761
▁shiddat	-3762
▁thikane	-3763
▁tishna-	-3764
-e-bistar	-3765
-e-khuban	-3766
-e-nashat	-3767
-e-raftar	-3768
-e-shama	-3769
-e-shokhi	-3770
▁bachchon	-3771
▁be-niyaz	-3772
▁charagar	-3773
▁dekhiye	-3774
▁gham-e-f	-3775
▁kahunga	-3776
▁khultin	-3777
▁mehrbani	-3778
▁pahunche	-3779
▁raushan	-3780
▁salamat	-3781
▁sannata	-3782
▁tabassum	-3783
▁tishnagi	-3784
-e-gulshan	-3785
-e-shabnam	-3786
▁kashakash	-3787
▁zindagani	-3788
▁be-ikhtiyar	-3789
▁shab-e-firaq	-3790
▁zakhm-e-jigar	-3791
l	-3792
or	-3793
qq	-3794
-ul	-3795
ali	-3796
am	-3797
bih	-3798
dab	-3799
faz	-3800
ikh	-3801
iza	-3802
non	-3803
qsh	-3804
rak	-3805
ujh	-3806
yas	-3807
▁po	-3808
▁uu	-3809
-ang	-3810
-hal	-3811
-nam	-3812
-o-f	-3813
-pai	-3814
ekha	-3815
hlat	-3816
inat	-3817
kira	-3818
mand	-3819
qiya	-3820
sari	-3821
udaz	-3822
vvat	-3823
zmun	-3824
▁amr	-3825
▁ana	-3826
▁asi	-3827
▁ata	-3828
▁eid	-3829
▁fae	-3830
▁fir	-3831
▁jhi	-3832
▁le	-3833
▁naa	-3834
▁nag	-3835
▁nur	-3836
▁puk	-3837
▁rok	-3838
▁soe	-3839
▁tim	-3840
▁zad	-3841
-chin	-3842
-e-du	-3843
-e-im	-3844
-sara	-3845
hasti	-3846
ishta	-3847
ohbat	-3848
qalab	-3849
qarar	-3850
umidi	-3851
▁arsa	-3852
▁azar	-3853
▁beba	-3854
▁bech	-3855
▁bhag	-3856
▁biit	-3857
▁bikh	-3858
▁bole	-3859
▁bure	-3860
▁buri	-3861
▁chah	-3862
▁chun	-3863
▁daar	-3864
▁dafn	-3865
▁fard	-3866
▁hari	-3867
▁hina	-3868
▁jada	-3869
▁kate	-3870
▁maat	-3871
▁mail	-3872
▁mat	-3873
▁mukh	-3874
▁naqd	-3875
▁nase	-3876
▁qaae	-3877
▁saat	-3878
▁saki	-3879
▁saun	-3880
▁sehr	-3881
▁shua	-3882
▁tod	-3883
▁tum	-3884
▁ujde	-3885
▁vajd	-3886
-e-soz	-3887
-e-tap	-3888
-e-taq	-3889
-e-tur	-3890
-e-umr	-3891
-guzar	-3892
-kashi	-3893
-makan	-3894
-nigah	-3895
khiyan	-3896
▁aadam	-3897
▁agahi	-3898
▁apni	-3899
▁baazu	-3900
▁badhe	-3901
▁bakhi	-3902
▁bakht	-3903
▁barha	-3904
▁be-na	-3905
▁be-ta	-3906
▁bujhe	-3907
▁buzur	-3908
▁chaah	-3909
▁darta	-3910
▁dasta	-3911
▁davat	-3912
▁dhoke	-3913
▁didar	-3914
▁fasla	-3915
▁ghash	-3916
▁hadis	-3917
▁huiin	-3918
▁irada	-3919
▁jaiye	-3920
▁jivan	-3921
▁kuun	-3922
▁laash	-3923
▁lacha	-3924
▁laila	-3925
▁maare	-3926
▁makin	-3927
▁malal	-3928
▁miyan	-3929
▁mukar	-3930
▁namaz	-3931
▁nibha	-3932
▁nikli	-3933
▁pahad	-3934
▁phira	-3935
▁pusht	-3936
▁pyare	-3937
▁rakh	-3938
▁resha	-3939
▁shair	-3940
▁tavaf	-3941
▁uupar	-3942
▁vabal	-3943
▁vaqia	-3944
▁zinat	-3945
-e-azal	-3946
-e-beja	-3947
-e-ghaz	-3948
-e-maqs	-3949
-e-saya	-3950
-e-sina	-3951
-e-yar	-3952
-e-zauq	-3953
-sukhan	-3954
▁aaina	-3955
▁aghyar	-3956
▁aksar	-3957
▁anchal	-3958
▁ashkar	-3959
▁atish	-3960
▁avargi	-3961
▁begane	-3962
▁bharam	-3963
▁bichha	-3964
▁chala	-3965
▁chalne	-3966
▁chalti	-3967
▁chaunk	-3968
▁darman	-3969
▁dekhen	-3970
▁etimad	-3971
▁gharon	-3972
▁guzari	-3973
▁jagah	-3974
▁karni	-3975
▁kasrat	-3976
▁khana-	-3977
▁khilaf	-3978
▁khumar	-3979
▁lafzon	-3980
▁likhun	-3981
▁machal	-3982
▁mahram	-3983
▁milti	-3984
▁mohlat	-3985
▁nakhun	-3986
▁nikhar	-3987
▁paoge	-3988
▁pasban	-3989
▁pighal	-3990
▁qadmon	-3991
▁rakhti	-3992
▁raunaq	-3993
▁rishte	-3994
▁sahab	-3995
▁sakun	-3996
▁saqiya	-3997
▁sargar	-3998
▁shairi	-3999
▁sunane	-4000
▁tapish	-4001
▁tarikh	-4002
▁thahre	-4003
▁tujhe	-4004
▁utarta	-4005
▁yahan	-4006
▁zahid	-4007
▁zulmat	-4008
-e-bayan	-4009
-e-bedad	-4010
-e-girya	-4011
-e-laila	-4012
-e-ravan	-4013
-e-rusva	-4014
-e-sahil	-4015
-e-tarab	-4016
-e-vafa	-4017
-e-vatan	-4018
-e-zakhm	-4019
-e-zamin	-4020
-e-zulf	-4021
-parasti	-4022
▁avenge	-4023
▁baharon	-4024
▁be-asar	-4025
▁chehron	-4026
▁chhalak	-4027
▁darvaza	-4028
▁divaron	-4029
▁do-char	-4030
▁guzarta	-4031
▁kashish	-4032
▁khabar	-4033
▁lashkar	-4034
▁likhun	-4035
▁pachhta	-4036
▁raqibon	-4037
▁rifaqat	-4038
▁suvaida	-4039
▁thahre	-4040
-e-bahari	-4041
-e-gardun	-4042
-e-hijran	-4043
-e-naghma	-4044
-e-pinhan	-4045
-e-saghar	-4046
-e-sharar	-4047
-e-shisha	-4048
-e-sohbat	-4049
-e-tasvir	-4050
-e-zamana	-4051
-e-zindan	-4052
▁karenge	-4053
▁khinchta	-4054
▁zindagi	-4055
-e-dushman	-4056
-e-khayal	-4057
-e-parvana	-4058
▁ahl-e-dil	-4059
-e-be-khudi	-4060
▁bad-gumani	-4061
▁kashmakash	-4062
▁ahl-e-nazar	-4063
▁be-takalluf	-4064
▁chashm-e-tar	-4065
▁jauhar-e-aina	-4066
-ji	-4067
-pe	-4068
-su	-4069
adi	-4070
dha	-4071
gul	-4072
kra	-4073
nak	-4074
pur	-4075
qqo	-4076
rez	-4077
saz	-4078
se	-4079
seh	-4080
uli	-4081
yya	-4082
▁at	-4083
-kan	-4084
abin	-4085
aras	-4086
bad	-4087
hang	-4088
huda	-4089
jjub	-4090
kari	-4091
mane	-4092
mura	-4093
riya	-4094
shah	-4095
udai	-4096
ukta	-4097
ula	-4098
uqat	-4099
usla	-4100
uund	-4101
vaqt	-4102
yani	-4103
yaza	-4104
yyat	-4105
▁ab	-4106
▁bud	-4107
▁bur	-4108
▁das	-4109
▁dud	-4110
▁hur	-4111
▁iid	-4112
▁ijz	-4113
▁jeb	-4114
▁kas	-4115
▁kim	-4116
▁kud	-4117
▁nus	-4118
▁pae	-4119
▁puj	-4120
▁qib	-4121
▁tin	-4122
▁udi	-4123
▁vaq	-4124
▁vas	-4125
-chak	-4126
-e-aq	-4127
-e-eh	-4128
-e-gu	-4129
-khan	-4130
-khun	-4131
-mand	-4132
-nava	-4133
badat	-4134
dakta	-4135
diyan	-4136
gahi	-4137
hidan	-4138
indon	-4139
ismat	-4140
stish	-4141
ursat	-4142
▁abla	-4143
▁ajza	-4144
▁arsh	-4145
▁baam	-4146
▁baan	-4147
▁bhan	-4148
▁chub	-4149
▁dare	-4150
▁daud	-4151
▁dhan	-4152
▁dubo	-4153
▁ganj	-4154
▁ghut	-4155
▁hila	-4156
▁hush	-4157
▁itra	-4158
▁jhag	-4159
▁jiit	-4160
▁kahi	-4161
▁kale	-4162
▁khet	-4163
▁khoe	-4164
▁khum	-4165
▁kota	-4166
▁maah	-4167
▁mauq	-4168
▁maze	-4169
▁mohr	-4170
▁ramz	-4171
▁sabz	-4172
▁saik	-4173
▁sako	-4174
▁sava	-4175
▁sote	-4176
▁tahi	-4177
▁tash	-4178
▁tauq	-4179
▁tund	-4180
▁ufuq	-4181
▁vuun	-4182
-chash	-4183
-e-abr	-4184
-e-afs	-4185
-e-anj	-4186
-e-maq	-4187
-e-mus	-4188
-e-saf	-4189
-e-sai	-4190
-e-shu	-4191
-e-sur	-4192
-e-tak	-4193
-e-tam	-4194
-e-vir	-4195
-e-yaq	-4196
-fareb	-4197
-khvab	-4198
-o-cha	-4199
-o-gha	-4200
-o-mah	-4201
dauran	-4202
hishon	-4203
khshan	-4204
m-e-ta	-4205
ushada	-4206
▁aaiin	-4207
▁aariz	-4208
▁alfaz	-4209
▁astan	-4210
▁astin	-4211
▁azadi	-4212
▁baada	-4213
▁baar	-4214
▁baazi	-4215
▁bahte	-4216
▁banae	-4217
▁banti	-4218
▁barat	-4219
▁bheji	-4220
▁bulan	-4221
▁buujh	-4222
▁daala	-4223
▁dilli	-4224
▁duun	-4225
▁fakhr	-4226
▁farsh	-4227
▁gahra	-4228
▁gham	-4229
▁ghaur	-4230
▁gila	-4231
▁gusta	-4232
▁hansa	-4233
▁jaada	-4234
▁jaari	-4235
▁jalta	-4236
▁jitni	-4237
▁kaam	-4238
▁kanon	-4239
▁khalq	-4240
▁khama	-4241
▁khaza	-4242
▁lega	-4243
▁maane	-4244
▁mahak	-4245
▁maraz	-4246
▁mazar	-4247
▁mira	-4248
▁naiin	-4249
▁najat	-4250
▁nauha	-4251
▁paae	-4252
▁palak	-4253
▁pyari	-4254
▁qaail	-4255
▁raakh	-4256
▁rahon	-4257
▁rahun	-4258
▁rudad	-4259
▁sabit	-4260
▁safai	-4261
▁samar	-4262
▁savab	-4263
▁shaah	-4264
▁shake	-4265
▁sharh	-4266
▁sulag	-4267
▁taara	-4268
▁tarik	-4269
▁tiri	-4270
▁udasi	-4271
▁uryan	-4272
▁yakta	-4273
-e-aish	-4274
-e-azar	-4275
-e-fara	-4276
-e-mast	-4277
-e-mina	-4278
-e-shah	-4279
-e-tala	-4280
-e-zist	-4281
-o-gham	-4282
▁aadmi	-4283
▁araish	-4284
▁bakhsh	-4285
▁banhon	-4286
▁be-sar	-4287
▁beach	-4288
▁bhatak	-4289
▁buzurg	-4290
▁chhuta	-4291
▁darvaz	-4292
▁dhunda	-4293
▁fasane	-4294
▁gham-g	-4295
▁guftar	-4296
▁guzar	-4297
▁hamrah	-4298
▁hongi	-4299
▁ishrat	-4300
▁jallad	-4301
▁jazbat	-4302
▁jhonka	-4303
▁khatre	-4304
▁khuban	-4305
▁khulus	-4306
▁kinara	-4307
▁kushta	-4308
▁kyunki	-4309
▁ladka	-4310
▁lagta	-4311
▁maasum	-4312
▁mahbub	-4313
▁mahrum	-4314
▁mahsus	-4315
▁masruf	-4316
▁maujud	-4317
▁mazmun	-4318
▁muddai	-4319
▁mushaf	-4320
▁mutrib	-4321
▁na-khu	-4322
▁naqsha	-4323
▁naseh	-4324
▁nashad	-4325
▁nigah	-4326
▁nikale	-4327
▁nuskha	-4328
▁parsai	-4329
▁partav	-4330
▁pichhe	-4331
▁purane	-4332
▁rahmat	-4333
▁rakhna	-4334
▁rakhun	-4335
▁raston	-4336
▁ravani	-4337
▁sambha	-4338
▁sar-ta	-4339
▁taamir	-4340
▁tahrir	-4341
▁uthane	-4342
▁virana	-4343
▁virani	-4344
▁zillat	-4345
▁zinhar	-4346
▁zulfen	-4347
-e-adam	-4348
-e-falak	-4349
-e-garmi	-4350
-e-husn	-4351
-e-khama	-4352
-e-maani	-4353
-e-mazar	-4354
-e-naqsh	-4355
-e-naseh	-4356
-e-nigar	-4357
-e-rashk	-4358
-e-shokh	-4359
-e-shola	-4360
-o-saman	-4361
mohabbat	-4362
▁chhupae	-4363
▁dam-ba-	-4364
▁ghunche	-4365
▁hasinon	-4366
▁inqalab	-4367
▁khalish	-4368
▁khincha	-4369
▁mai-kas	-4370
▁marasim	-4371
▁marhala	-4372
▁nashtar	-4373
▁pari-ru	-4374
▁rah-rau	-4375
▁ranjish	-4376
▁rukhsar	-4377
▁shaista	-4378
▁shorish	-4379
▁taajjub	-4380
▁tavaqqo	-4381
▁zaminon	-4382
-e-bulbul	-4383
-e-fughan	-4384
-e-furqat	-4385
-e-hairat	-4386
-e-himmat	-4387
-e-karvan	-4388
-e-khiram	-4389
-e-muddaa	-4390
-e-rangin	-4391
-e-shauq	-4392
▁andheron	-4393
▁andhiyon	-4394
▁khaksari	-4395
▁la-makan	-4396
▁lagenge	-4397
▁pasheman	-4398
▁sang-dil	-4399
▁shararat	-4400
▁shikasta	-4401
▁ungliyan	-4402
-e-iztirab	-4403
-e-mushkil	-4404
-e-sham-e-	-4405
-e-shorida	-4406
▁bakhshish	-4407
▁be-niyazi	-4408
▁farishton	-4409
▁jalva-gah	-4410
▁mai-khane	-4411
▁marg-e-na	-4412
▁nigah-e-a	-4413
▁pareshani	-4414
▁khud-kushi	-4415
▁khvahishon	-4416
▁tishna-kam	-4417
-e-mai-khana	-4418
▁jalva-e-gul	-4419
▁khun-e-jigar	-4420
▁chashm-e-mast	-4421
b	-4422
br	-4423
hn	-4424
ol	-4425
sm	-4426
-bu	-4427
-ka	-4428
chh	-4429
dur	-4430
ere	-4431
ghl	-4432
hda	-4433
ism	-4434
jha	-4435
kne	-4436
kul	-4437
li	-4438
rin	-4439
rir	-4440
von	-4441
zim	-4442
▁if	-4443
▁ve	-4444
-dam	-4445
-e-e	-4446
-mar	-4447
-o-m	-4448
-o-z	-4449
-qad	-4450
-rau	-4451
ale	-4452
are	-4453
bar	-4454
bara	-4455
dar	-4456
daus	-4457
haba	-4458
haya	-4459
heli	-4460
hron	-4461
jhal	-4462
jud	-4463
khe	-4464
kmat	-4465
maya	-4466
ste	-4467
urez	-4468
van	-4469
vval	-4470
▁aar	-4471
▁aqi	-4472
▁asl	-4473
▁bac	-4474
▁baj	-4475
▁gaa	-4476
▁ghi	-4477
▁gho	-4478
▁hun	-4479
▁jug	-4480
▁li	-4481
▁mol	-4482
▁nok	-4483
▁put	-4484
▁roe	-4485
▁sa	-4486
▁si	-4487
▁sin	-4488
▁taf	-4489
▁tif	-4490
-afza	-4491
-e-ib	-4492
-faza	-4493
-khar	-4494
chche	-4495
hanak	-4496
jalli	-4497
tanat	-4498
tarab	-4499
unvan	-4500
urana	-4501
yyari	-4502
▁angu	-4503
▁araq	-4504
▁bahs	-4505
▁be-n	-4506
▁bega	-4507
▁chor	-4508
▁duud	-4509
▁fida	-4510
▁insa	-4511
▁jaal	-4512
▁jhil	-4513
▁kasa	-4514
▁larz	-4515
▁mina	-4516
▁moam	-4517
▁nabz	-4518
▁nakh	-4519
▁nami	-4520
▁nira	-4521
▁nish	-4522
▁paak	-4523
▁qabr	-4524
▁roke	-4525
▁sadi	-4526
▁same	-4527
▁sane	-4528
▁sukh	-4529
▁suno	-4530
▁taus	-4531
▁than	-4532
▁toda	-4533
▁ubal	-4534
▁ujad	-4535
▁utra	-4536
▁vadi	-4537
▁vaza	-4538
-badan	-4539
-bakht	-4540
-e-dan	-4541
-e-gum	-4542
-e-haz	-4543
-e-mat	-4544
-e-mir	-4545
-e-na-	-4546
-e-pir	-4547
-e-sam	-4548
-nasib	-4549
-o-khu	-4550
-talab	-4551
nargis	-4552
pinhan	-4553
tishna	-4554
▁aafat	-4555
▁aamad	-4556
▁aauun	-4557
▁aflak	-4558
▁akele	-4559
▁anjum	-4560
▁apnon	-4561
▁auqat	-4562
▁baasi	-4563
▁bande	-4564
▁barah	-4565
▁batla	-4566
▁be-ka	-4567
▁bezar	-4568
▁bhali	-4569
▁bisat	-4570
▁buund	-4571
▁chaap	-4572
▁dalil	-4573
▁dhuul	-4574
▁duuba	-4575
▁duuri	-4576
▁gulon	-4577
▁hajat	-4578
▁halak	-4579
▁hali	-4580
▁halqe	-4581
▁hazir	-4582
▁hoshi	-4583
▁ishva	-4584
▁itna	-4585
▁jaano	-4586
▁jalti	-4587
▁janen	-4588
▁jhuta	-4589
▁juda	-4590
▁kamre	-4591
▁khane	-4592
▁khatt	-4593
▁kheme	-4594
▁khira	-4595
▁khoya	-4596
▁laata	-4597
▁laaya	-4598
▁lahje	-4599
▁laraz	-4600
▁maan	-4601
▁majma	-4602
▁majra	-4603
▁manin	-4604
▁mariz	-4605
▁mire	-4606
▁muaaf	-4607
▁murad	-4608
▁musav	-4609
▁na-ra	-4610
▁nadim	-4611
▁navak	-4612
▁naved	-4613
▁niyaz	-4614
▁nukta	-4615
▁padti	-4616
▁panja	-4617
▁phir	-4618
▁phiri	-4619
▁piite	-4620
▁qatre	-4621
▁qibla	-4622
▁rafiq	-4623
▁rasai	-4624
▁rihai	-4625
▁saaat	-4626
▁safha	-4627
▁saka	-4628
▁salib	-4629
▁samjh	-4630
▁shane	-4631
▁shifa	-4632
▁simat	-4633
▁sunai	-4634
▁sunne	-4635
▁tabah	-4636
▁tadpa	-4637
▁tangi	-4638
▁tauba	-4639
▁ujaad	-4640
▁uthai	-4641
▁valva	-4642
▁zamir	-4643
▁zaval	-4644
-e-barq	-4645
-e-dida	-4646
-e-gira	-4647
-e-guft	-4648
-e-ilti	-4649
-e-iman	-4650
-e-kash	-4651
-e-khub	-4652
-e-nava	-4653
-e-taza	-4654
-e-vada	-4655
-fishan	-4656
-o-hava	-4657
-o-kham	-4658
khabari	-4659
m-o-rah	-4660
urdagan	-4661
ushshaq	-4662
▁afsane	-4663
▁bandon	-4664
▁be-sab	-4665
▁betabi	-4666
▁bhigta	-4667
▁chahne	-4668
▁chhati	-4669
▁chhode	-4670
▁chhuri	-4671
▁dastak	-4672
▁denge	-4673
▁hansne	-4674
▁hausle	-4675
▁jaoge	-4676
▁jhagda	-4677
▁khilte	-4678
▁khuda	-4679
▁kimiya	-4680
▁lagana	-4681
▁lagane	-4682
▁milen	-4683
▁mutthi	-4684
▁nazron	-4685
▁nuqsan	-4686
▁paikar	-4687
▁patton	-4688
▁pukare	-4689
▁purana	-4690
▁purani	-4691
▁rahegi	-4692
▁rahen	-4693
▁sanson	-4694
▁shaeri	-4695
▁ta-ba-	-4696
▁taufiq	-4697
▁tayyar	-4698
▁thakan	-4699
▁timsal	-4700
▁vaaiz	-4701
▁vahshi	-4702
▁yaani	-4703
▁yaksar	-4704
▁zalim	-4705
-e-arbab	-4706
-e-hashr	-4707
-e-khizr	-4708
-e-khudi	-4709
-e-nafas	-4710
-e-sanam	-4711
-e-zahir	-4712
-e-zinda	-4713
▁badalne	-4714
▁baghban	-4715
▁banegi	-4716
▁be-dili	-4717
▁bulandi	-4718
▁charcha	-4719
▁dijiye	-4720
▁dikhaya	-4721
▁do-alam	-4722
▁gunguna	-4723
▁gurezan	-4724
▁hamari	-4725
▁hushyar	-4726
▁iltifat	-4727
▁imtiyaz	-4728
▁khatir	-4729
▁khud-ba	-4730
▁kitabon	-4731
▁malamat	-4732
▁na-char	-4733
▁nairang	-4734
▁nazzara	-4735
▁puchhun	-4736
▁rishton	-4737
▁saikdon	-4738
▁samjhen	-4739
▁sarapa	-4740
▁sataish	-4741
▁shohrat	-4742
▁tajalli	-4743
▁tazkira	-4744
-e-ghazal	-4745
-e-guftar	-4746
-e-jauhar	-4747
-e-khumar	-4748
-e-lazzat	-4749
-e-nazara	-4750
-e-qismat	-4751
-e-rozgar	-4752
▁achchha	-4753
▁barhaman	-4754
▁be-zaban	-4755
▁chalega	-4756
▁dhundhta	-4757
▁intikhab	-4758
▁jahannam	-4759
▁kharidar	-4760
▁khayalon	-4761
▁khushbu	-4762
▁mai-kada	-4763
▁manzilen	-4764
▁mushafi	-4765
▁payam-e-	-4766
▁saltanat	-4767
▁talabgar	-4768
▁uthaiye	-4769
-e-bazm-e-	-4770
-e-do-alam	-4771
-e-gardish	-4772
-e-malamat	-4773
-e-nazzara	-4774
-e-shikast	-4775
-e-tajalli	-4776
▁dil-e-pur	-4777
▁dushmanon	-4778
▁ham-zaban	-4779
▁jalva-gar	-4780
▁khana-vir	-4781
▁mahram-e-	-4782
▁na-tavani	-4783
▁shabistan	-4784
▁tilism-e-	-4785
-e-be-parva	-4786
-e-gulistan	-4787
-e-kaf-e-pa	-4788
-e-khud-ara	-4789
-e-khurshid	-4790
-e-shahadat	-4791
▁ahd-e-vafa	-4792
▁bad-e-saba	-4793
▁dagh-e-dil	-4794
▁dam-ba-dam	-4795
▁gham-e-yar	-4796
▁khun-e-dil	-4797
▁samundaron	-4798
-e-mohabbat	-4799
▁sham-e-gham	-4800
▁tark-e-vafa	-4801
▁khana-kharab	-4802
▁marg-e-na-ga	-4803
▁gham-e-dauran	-4804
▁naqsh-e-qadam	-4805
▁nigah-e-shauq	-4806
u	-4807
-ab	-4808
-ag	-4809
de	-4810
dhe	-4811
fak	-4812
gh	-4813
haz	-4814
hez	-4815
hri	-4816
hud	-4817
huq	-4818
ili	-4819
jam	-4820
kim	-4821
kte	-4822
mab	-4823
mag	-4824
nin	-4825
qan	-4826
rud	-4827
ruk	-4828
sen	-4829
tiq	-4830
ur	-4831
ven	-4832
vin	-4833
vva	-4834
yur	-4835
zum	-4836
▁ug	-4837
▁yu	-4838
-bad	-4839
-jui	-4840
-nis	-4841
-rez	-4842
-tan	-4843
-zad	-4844
adab	-4845
chha	-4846
hat	-4847
hiya	-4848
imar	-4849
inde	-4850
inti	-4851
ishk	-4852
khan	-4853
lah	-4854
mari	-4855
mate	-4856
raza	-4857
srav	-4858
tab	-4859
tani	-4860
uhur	-4861
ukun	-4862
umat	-4863
urgh	-4864
yara	-4865
zish	-4866
▁ali	-4867
▁are	-4868
▁auj	-4869
▁azm	-4870
▁bab	-4871
▁bil	-4872
▁duk	-4873
▁ima	-4874
▁ita	-4875
▁jiy	-4876
▁lat	-4877
▁mak	-4878
▁mom	-4879
▁nek	-4880
▁odh	-4881
▁pin	-4882
▁qaa	-4883
▁qah	-4884
▁qam	-4885
▁qul	-4886
▁rog	-4887
▁ruh	-4888
▁sav	-4889
▁suj	-4890
▁ude	-4891
▁ush	-4892
-ande	-4893
-ravi	-4894
-vari	-4895
assam	-4896
damat	-4897
hisab	-4898
hubar	-4899
hurur	-4900
ishan	-4901
ishin	-4902
khvan	-4903
m-e-m	-4904
nahon	-4905
ostan	-4906
rangi	-4907
rasan	-4908
shtar	-4909
uvvat	-4910
yega	-4911
▁aah	-4912
▁agle	-4913
▁asir	-4914
▁azab	-4915
▁barf	-4916
▁bhad	-4917
▁bhes	-4918
▁bola	-4919
▁bose	-4920
▁chhi	-4921
▁dana	-4922
▁dega	-4923
▁dhab	-4924
▁fari	-4925
▁gala	-4926
▁gava	-4927
▁gire	-4928
▁gunj	-4929
▁hair	-4930
▁hama	-4931
▁hind	-4932
▁hont	-4933
▁jabr	-4934
▁jald	-4935
▁jins	-4936
▁kaat	-4937
▁kach	-4938
▁khaj	-4939
▁khod	-4940
▁khur	-4941
▁kunj	-4942
▁lega	-4943
▁leti	-4944
▁madd	-4945
▁makr	-4946
▁mauz	-4947
▁mota	-4948
▁mulk	-4949
▁muna	-4950
▁nain	-4951
▁naji	-4952
▁qaab	-4953
▁qahr	-4954
▁qata	-4955
▁rida	-4956
▁roti	-4957
▁ruke	-4958
▁ruki	-4959
▁ruup	-4960
▁sanv	-4961
▁sehn	-4962
▁	-4963
a	-4964
h	-4965
i	-4966
n	-4967
e	-4968
k	-4969
r	-4970
s	-4971
u	-4972
t	-4973
m	-4974
-	-4975
	-4976
o	-4977
b	-4978
d	-4979
l	-4980
g	-4981
j	-4982
y	-4983
z	-4984
p	-4985
v	-4986
c	-4987
q	-4988
f	-4989
,	-4990
w	-4991
!	-4992
x	-4993
?	-4994
