<PAD>	0
<UNK>	0
<SOS>	0
<EOS>	0
<MASK>	0
▁ک	-0
▁	-1
▁ہ	-2
▁م	-3
یں	-4
▁ا	-5
▁ب	-6
▁ت	-7
▁س	-8
▁ن	-9
▁د	-10
▁ج	-11
▁ہے	-12
یا	-13
▁پ	-14
▁گ	-15
▁ہو	-16
▁و	-17
▁میں	-18
▁آ	-19
▁ر	-20
▁نہ	-21
▁کو	-22
ھی	-23
ان	-24
▁سے	-25
▁کی	-26
ار	-27
وں	-28
▁خ	-29
▁کہ	-30
▁ل	-31
▁کے	-32
▁تو	-33
اں	-34
▁چ	-35
▁ش	-36
ئی	-37
▁کا	-38
یر	-39
ئے	-40
▁بھی	-41
▁ی	-42
▁ہیں	-43
ھا	-44
تا	-45
▁اس	-46
▁ہم	-47
▁کر	-48
▁نہیں	-49
▁ع	-50
▁کیا	-51
▁دل	-52
تے	-53
ور	-54
▁وہ	-55
جھ	-56
▁یہ	-57
نا	-58
را	-59
یک	-60
▁ح	-61
▁ز	-62
ال	-63
ات	-64
▁جو	-65
▁رہ	-66
▁جا	-67
ھر	-68
نے	-69
ری	-70
▁ق	-71
▁ف	-72
ام	-73
▁غ	-74
▁نے	-75
ند	-76
▁پر	-77
اہ	-78
چھ	-79
▁خو	-80
▁تھا	-81
ست	-82
ھو	-83
▁اب	-84
▁ص	-85
لا	-86
▁مجھ	-87
▁پہ	-88
▁ہوں	-89
دا	-90
▁ہی	-91
▁یا	-92
▁دیک	-93
▁کوئی	-94
رے	-95
▁ط	-96
کھ	-97
▁بہ	-98
▁تم	-99
▁ان	-100
▁کس	-101
▁اپ	-102
از	-103
گر	-104
تی	-105
▁اور	-106
▁کچھ	-107
▁جان	-108
▁میر	-109
لے	-110
▁اک	-111
▁ہوا	-112
▁بے	-113
▁در	-114
نی	-115
▁رو	-116
اب	-117
▁دی	-118
نہ	-119
▁سو	-120
اد	-121
▁ہر	-122
شق	-123
▁گر	-124
▁دیکھ	-125
نگ	-126
▁پھر	-127
▁گیا	-128
▁تیر	-129
▁کب	-130
▁دو	-131
ہر	-132
▁سر	-133
یس	-134
گی	-135
▁مح	-136
لی	-137
▁اے	-138
ھے	-139
▁جس	-140
▁مجھے	-141
▁عشق	-142
▁پا	-143
▁دن	-144
▁غم	-145
ید	-146
ئیں	-147
لو	-148
▁آن	-149
▁جب	-150
▁سا	-151
▁لی	-152
انی	-153
▁طر	-154
▁رہا	-155
▁گل	-156
▁سب	-157
▁نظ	-158
▁تجھ	-159
اری	-160
▁بی	-161
اتھ	-162
▁لگ	-163
▁تھی	-164
▁ایک	-165
▁گا	-166
انہ	-167
▁سم	-168
▁تک	-169
▁بات	-170
▁جائے	-171
انے	-172
▁حس	-173
▁کیوں	-174
فا	-175
▁کبھی	-176
▁نک	-177
▁نظر	-178
▁مر	-179
▁مو	-180
▁آنکھ	-181
▁تھے	-182
▁مرے	-183
▁ٹ	-184
▁سک	-185
▁کسی	-186
▁بر	-187
سم	-188
▁مل	-189
▁گئی	-190
▁بہت	-191
قت	-192
یاں	-193
بر	-194
بت	-195
ائے	-196
▁پی	-197
شت	-198
▁فر	-199
▁رہے	-200
▁اٹ	-201
▁کہاں	-202
شم	-203
▁گے	-204
▁زند	-205
▁ال	-206
▁بد	-207
▁گز	-208
▁اپنے	-209
اک	-210
▁آج	-211
▁نگ	-212
▁سی	-213
فت	-214
▁لو	-215
▁مگر	-216
▁زم	-217
▁کھ	-218
▁خود	-219
قی	-220
▁تری	-221
▁ترے	-222
▁دے	-223
دہ	-224
ارے	-225
▁ایس	-226
▁چاہ	-227
▁یاد	-228
▁گئے	-229
▁یار	-230
▁شب	-231
▁من	-232
دم	-233
▁مری	-234
فر	-235
▁کم	-236
▁اپنی	-237
▁ات	-238
▁رنگ	-239
ائی	-240
▁دیا	-241
▁ہوئے	-242
▁اگر	-243
▁ہوئی	-244
▁ہوتا	-245
▁نا	-246
▁گھر	-247
▁کہیں	-248
▁جہ	-249
نوں	-250
سی	-251
لہ	-252
▁آئی	-253
▁پو	-254
▁سن	-255
شک	-256
▁مع	-257
▁خدا	-258
▁شو	-259
▁میرے	-260
باں	-261
▁آپ	-262
▁طرح	-263
▁رات	-264
▁جی	-265
▁شک	-266
▁آئے	-267
▁میری	-268
▁زندگی	-269
اغ	-270
ھول	-271
▁درد	-272
▁یوں	-273
مت	-274
▁لیے	-275
نچ	-276
رم	-277
▁دنیا	-278
وار	-279
راب	-280
▁بس	-281
▁خوش	-282
▁ہاتھ	-283
▁آیا	-284
▁رکھ	-285
▁شا	-286
▁جہاں	-287
▁محبت	-288
یز	-289
▁بھر	-290
▁وفا	-291
▁اپنا	-292
▁تمہ	-293
▁پوچھ	-294
انا	-295
▁حسن	-296
▁ناز	-297
▁پیا	-298
▁دور	-299
▁وال	-300
رت	-301
▁نام	-302
▁کرے	-303
▁آہ	-304
▁بو	-305
▁تیری	-306
▁راہ	-307
▁جانے	-308
زم	-309
گا	-310
▁حال	-311
▁مرا	-312
ارا	-313
▁پڑ	-314
▁سمجھ	-315
▁نگاہ	-316
▁دم	-317
کر	-318
ستی	-319
کھا	-320
▁لب	-321
ھوڑ	-322
▁صب	-323
▁ظ	-324
▁ہمیں	-325
▁وہی	-326
▁ساتھ	-327
نج	-328
الم	-329
▁لے	-330
▁گو	-331
▁شہر	-332
خت	-333
صل	-334
▁ابھی	-335
▁اسے	-336
من	-337
اند	-338
▁بار	-339
بی	-340
▁گی	-341
ہی	-342
▁ست	-343
▁چشم	-344
▁کام	-345
▁بن	-346
زل	-347
الب	-348
▁لوگ	-349
▁کون	-350
▁میرا	-351
سو	-352
فل	-353
▁نش	-354
▁لا	-355
▁چھ	-356
▁ترا	-357
▁رہی	-358
▁ہن	-359
▁تیرے	-360
▁فرا	-361
▁خاک	-362
▁لیک	-363
یش	-364
عت	-365
مر	-366
▁با	-367
▁لیکن	-368
کا	-369
▁مے	-370
▁بھ	-371
▁جن	-372
طر	-373
▁شم	-374
▁دیکھا	-375
▁آگ	-376
سا	-377
ستہ	-378
▁کرتے	-379
لف	-380
ہل	-381
▁بڑ	-382
▁اند	-383
▁مان	-384
▁شوق	-385
▁چھوڑ	-386
▁ہوگا	-387
لک	-388
▁شام	-389
▁وقت	-390
▁اٹھا	-391
یت	-392
البؔ	-393
▁نو	-394
▁خواب	-395
جر	-396
▁اف	-397
▁ادا	-398
▁گزر	-399
ون	-400
▁تر	-401
▁جاں	-402
لب	-403
ین	-404
▁قد	-405
▁چل	-406
▁اسی	-407
▁عالم	-408
بار	-409
▁آش	-410
عد	-411
▁داغ	-412
▁تیرا	-413
▁جاتا	-414
زا	-415
▁گرد	-416
▁دوست	-417
▁کہتے	-418
خم	-419
ٹا	-420
▁آب	-421
▁مد	-422
▁آنکھوں	-423
▁ام	-424
▁کل	-425
▁خیا	-426
▁جاتے	-427
▁وا	-428
▁بیٹ	-429
▁چلے	-430
▁آو	-431
▁ٹھ	-432
▁خبر	-433
▁طرف	-434
▁بنا	-435
ود	-436
▁ہائے	-437
یب	-438
یے	-439
دھر	-440
ورت	-441
▁شع	-442
▁جگر	-443
▁زخم	-444
▁غیر	-445
▁تجھے	-446
▁جانا	-447
▁جل	-448
▁یک	-449
▁آتا	-450
▁خیال	-451
اتی	-452
▁آخ	-453
▁جائیں	-454
▁خط	-455
▁قر	-456
▁بزم	-457
▁موج	-458
▁گری	-459
▁مق	-460
▁کش	-461
▁عمر	-462
سے	-463
▁جیس	-464
▁زلف	-465
▁صبح	-466
▁نق	-467
▁بند	-468
▁سنا	-469
▁اح	-470
▁جلو	-471
▁چرا	-472
▁اہل	-473
▁بہار	-474
▁را	-475
▁آتے	-476
▁دام	-477
▁چاند	-478
▁صح	-479
▁عج	-480
زار	-481
▁جھ	-482
▁ستم	-483
▁یاں	-484
ائ	-485
▁اچ	-486
▁لگا	-487
▁لیا	-488
▁دع	-489
▁کت	-490
▁اٹھ	-491
▁باد	-492
▁روز	-493
▁غالبؔ	-494
شن	-495
وش	-496
پا	-497
▁عا	-498
▁دھو	-499
▁چمن	-500
خن	-501
▁اج	-502
▁ملا	-503
▁یہی	-504
ھون	-505
▁ہجر	-506
▁دیکھتے	-507
حر	-508
▁عر	-509
▁نم	-510
▁گھ	-511
▁آخر	-512
کے	-513
▁شمع	-514
▁کھی	-515
▁چراغ	-516
▁مس	-517
▁تنہ	-518
▁کار	-519
▁تا	-520
ارہ	-521
▁بچ	-522
▁مج	-523
▁انت	-524
ول	-525
▁ایسے	-526
▁صورت	-527
یم	-528
▁بج	-529
▁کھل	-530
▁پہلے	-531
▁مہ	-532
▁دشم	-533
▁یہاں	-534
اش	-535
▁نکل	-536
▁کرو	-537
▁منزل	-538
رز	-539
▁بت	-540
▁دکھا	-541
▁ہوتی	-542
لم	-543
▁باز	-544
▁دیو	-545
▁کہہ	-546
ریب	-547
▁سفر	-548
▁سہی	-549
▁دریا	-550
وت	-551
▁سخن	-552
▁قدم	-553
▁کھو	-554
▁دید	-555
▁جیسے	-556
▁ہوتے	-557
▁تمہیں	-558
▁رخ	-559
▁لہ	-560
▁نال	-561
نم	-562
▁قیا	-563
▁پری	-564
▁نکلا	-565
▁کریں	-566
رف	-567
▁آدم	-568
▁بعد	-569
▁شاید	-570
▁فراق	-571
▁پھول	-572
▁آنکھیں	-573
تاب	-574
▁اڑ	-575
▁وح	-576
▁قدر	-577
▁کیسے	-578
▁ور	-579
▁سام	-580
▁سوچ	-581
▁ایسا	-582
▁جاتی	-583
▁عاشق	-584
▁جسے	-585
شر	-586
سان	-587
لوم	-588
یار	-589
▁شی	-590
▁اسد	-591
▁حیا	-592
▁دست	-593
▁سوں	-594
▁لکھ	-595
▁ملے	-596
▁مہر	-597
▁بھول	-598
▁ملتا	-599
▁قیامت	-600
اف	-601
▁شر	-602
▁ساقی	-603
▁قسم	-604
▁زباں	-605
▁والے	-606
فس	-607
وب	-608
ستاں	-609
▁صدا	-610
▁کہا	-611
▁اسدؔ	-612
▁دیوار	-613
▁جم	-614
▁انہ	-615
▁جدا	-616
▁خراب	-617
▁معلوم	-618
▁تھ	-619
▁دھ	-620
انوں	-621
▁اتنا	-622
ٹی	-623
▁خم	-624
▁مت	-625
▁گم	-626
▁راز	-627
▁آشنا	-628
▁ادھر	-629
▁امید	-630
وق	-631
▁آسم	-632
▁جنوں	-633
▁لگتا	-634
▁زمانہ	-635
▁آت	-636
▁پت	-637
▁جام	-638
▁منہ	-639
▁پاس	-640
▁انہیں	-641
▁سل	-642
▁صد	-643
▁غر	-644
▁آتی	-645
▁بدل	-646
▁بلا	-647
▁شوخ	-648
▁کیج	-649
▁کہوں	-650
بان	-651
▁آتش	-652
▁نیا	-653
▁پرو	-654
▁کوں	-655
▁حسرت	-656
▁نکلے	-657
▁پہنچ	-658
وس	-659
کار	-660
▁دکھ	-661
▁سوز	-662
▁تمنا	-663
▁صحرا	-664
▁ہستی	-665
صت	-666
وم	-667
▁خام	-668
▁دشمن	-669
لق	-670
▁ٹو	-671
اروں	-672
▁آرز	-673
▁اشک	-674
▁بیٹھے	-675
▁آرزو	-676
▁ایسی	-677
▁باقی	-678
▁وحشت	-679
▁تص	-680
▁مک	-681
▁حیر	-682
▁پیار	-683
▁جگ	-684
▁انج	-685
▁لگے	-686
▁نقش	-687
▁اچھا	-688
▁آئینہ	-689
▁زمانے	-690
▁ہمارے	-691
ٹے	-692
▁ساز	-693
▁گرم	-694
▁شراب	-695
ہم	-696
اتل	-697
▁تع	-698
▁حا	-699
▁بتا	-700
▁آدمی	-701
▁قاتل	-702
ہن	-703
جھا	-704
رام	-705
▁تق	-706
▁نی	-707
▁آگے	-708
▁خون	-709
▁دیں	-710
▁سحر	-711
▁تماش	-712
▁تمام	-713
▁زمیں	-714
▁انداز	-715
▁دیکھی	-716
ساں	-717
▁تی	-718
▁رب	-719
▁پیر	-720
ڑے	-721
▁تس	-722
▁خا	-723
▁بال	-724
▁خوں	-725
▁دعا	-726
▁سوا	-727
▁شرم	-728
▁لہو	-729
▁بھلا	-730
▁ورنہ	-731
اہر	-732
▁تن	-733
▁مزا	-734
▁انتظ	-735
فی	-736
افل	-737
▁فی	-738
▁کن	-739
▁دار	-740
وے	-741
▁حق	-742
▁تاب	-743
▁نگہ	-744
▁ہوش	-745
▁سکتا	-746
▁کھینچ	-747
▁تب	-748
▁رنج	-749
▁مست	-750
▁محفل	-751
▁باتیں	-752
▁ہماری	-753
امت	-754
یاد	-755
یشہ	-756
▁بخ	-757
▁جلا	-758
▁عجب	-759
▁کھا	-760
▁انتظار	-761
دے	-762
▁شہ	-763
▁برا	-764
▁سنگ	-765
▁صبا	-766
▁گلی	-767
▁آواز	-768
▁تنہا	-769
▁میرؔ	-770
▁کرتا	-771
▁گئیں	-772
بو	-773
ستے	-774
یوں	-775
▁آئ	-776
▁عق	-777
▁شور	-778
سر	-779
واں	-780
▁بدن	-781
▁سکے	-782
▁مشک	-783
▁کہو	-784
▁حیات	-785
▁کروں	-786
▁آسماں	-787
خص	-788
کی	-789
ندر	-790
▁حو	-791
▁سج	-792
▁مص	-793
▁آنے	-794
▁سان	-795
▁شخص	-796
▁وصل	-797
▁آنسو	-798
▁خواہ	-799
ہد	-800
ئیے	-801
▁فق	-802
▁لط	-803
▁ہزار	-804
دۂ	-805
یہ	-806
شاں	-807
▁قب	-808
▁ابر	-809
▁تیغ	-810
▁پھی	-811
▁چار	-812
▁چپ	-813
▁آوے	-814
▁اتر	-815
▁الفت	-816
▁مانگ	-817
▁دیکھنا	-818
مک	-819
چہ	-820
ڑا	-821
انۂ	-822
گاں	-823
▁دیر	-824
▁ٹھہ	-825
▁جلوہ	-826
▁خانہ	-827
▁دامن	-828
▁والا	-829
▁آہستہ	-830
▁سمجھا	-831
باب	-832
▁آز	-833
▁او	-834
▁تہ	-835
▁اعت	-836
▁رسو	-837
▁سرا	-838
▁موت	-839
▁ویر	-840
▁پایا	-841
طرہ	-842
فتہ	-843
▁طا	-844
▁اخت	-845
▁شاخ	-846
▁کیے	-847
▁خاطر	-848
▁کرتی	-849
▁دیکھو	-850
▁بک	-851
▁مش	-852
▁پل	-853
▁طلب	-854
▁مدت	-855
▁چلا	-856
▁اللہ	-857
▁فرصت	-858
▁لیتے	-859
▁پانی	-860
▁گزرے	-861
ھل	-862
▁بغ	-863
▁نص	-864
▁عہد	-865
▁لطف	-866
▁چھی	-867
▁خودی	-868
▁لاکھ	-869
▁مشکل	-870
▁کھلا	-871
▁کیجے	-872
صلہ	-873
▁سچ	-874
▁مط	-875
▁سنب	-876
▁شاہ	-877
▁طبی	-878
▁نفس	-879
▁چند	-880
▁پیدا	-881
▁چاہیے	-882
حب	-883
حت	-884
شی	-885
وہ	-886
یل	-887
رار	-888
▁باغ	-889
▁بنے	-890
▁فلک	-891
▁ناص	-892
▁چیز	-893
▁کیسی	-894
▁کیون	-895
▁تماشا	-896
بہ	-897
رد	-898
ڑی	-899
▁حج	-900
▁عز	-901
▁قص	-902
▁ترک	-903
▁پڑے	-904
▁ہاں	-905
▁ہنس	-906
▁آئنہ	-907
▁دیتے	-908
▁رکھا	-909
▁فراز	-910
▁نالہ	-911
▁ہونا	-912
▁فراقؔ	-913
زہ	-914
سن	-915
غر	-916
غم	-917
▁اش	-918
▁طو	-919
▁لم	-920
▁ٹک	-921
▁روح	-922
▁چلو	-923
▁حاصل	-924
▁ہمارا	-925
▁برق	-926
▁حقی	-927
▁شیخ	-928
▁فکر	-929
▁چاک	-930
▁چھپ	-931
▁پردہ	-932
▁سمجھے	-933
ڑک	-934
ادہ	-935
الی	-936
تیں	-937
زاں	-938
وری	-939
▁رک	-940
▁مٹ	-941
▁بڑھ	-942
▁روش	-943
▁ظفر	-944
▁پیم	-945
▁گاہ	-946
▁آوار	-947
▁داغؔ	-948
▁کرنا	-949
▁گردش	-950
▁طبیعت	-951
▁چاہتا	-952
▁دیکھیے	-953
تل	-954
▁دا	-955
▁سہ	-956
▁وص	-957
فتار	-958
▁جفا	-959
▁چہر	-960
▁کان	-961
▁ظفرؔ	-962
▁قرار	-963
▁جانتے	-964
▁حقیقت	-965
ظر	-966
وی	-967
▁جت	-968
▁ما	-969
▁تار	-970
▁خور	-971
▁صبر	-972
▁غزل	-973
▁لگی	-974
▁کہے	-975
▁اتنی	-976
▁قسمت	-977
▁موسم	-978
▁کہتا	-979
▁گریباں	-980
اط	-981
▁بل	-982
▁رگ	-983
▁بجھ	-984
▁تصو	-985
▁تلا	-986
▁جوش	-987
▁دوں	-988
▁لال	-989
▁ناد	-990
▁نور	-991
▁کرم	-992
▁روشن	-993
▁ساری	-994
▁مقام	-995
▁وہاں	-996
▁چھپا	-997
▁دونوں	-998
▁رکھتے	-999
▁فرازؔ	-1000
جہ	-1001
ما	-1002
نۂ	-1003
باد	-1004
▁تش	-1005
▁صا	-1006
▁فت	-1007
▁انگ	-1008
▁شیر	-1009
▁لیں	-1010
▁مدع	-1011
▁چھا	-1012
▁گدا	-1013
▁باند	-1014
▁حجاب	-1015
▁سانس	-1016
▁ناصح	-1017
▁خوشبو	-1018
وا	-1019
سیم	-1020
▁حد	-1021
▁می	-1022
▁کف	-1023
▁بیا	-1024
▁بیگ	-1025
▁خار	-1026
▁خوب	-1027
▁دشت	-1028
▁پیش	-1029
▁آزاد	-1030
▁تھیں	-1031
▁حیرت	-1032
▁سارے	-1033
▁فرقت	-1034
▁ہوگی	-1035
▁تصویر	-1036
ہا	-1037
▁بلب	-1038
▁رشک	-1039
▁لمح	-1040
▁لوٹ	-1041
▁منت	-1042
▁نغم	-1043
▁واں	-1044
▁بغیر	-1045
▁ظالم	-1046
▁ہونے	-1047
▁جاناں	-1048
▁خواہش	-1049
▁تمہارے	-1050
▁تنہائی	-1051
وز	-1052
کہ	-1053
گز	-1054
یؔ	-1055
ایت	-1056
داد	-1057
▁اق	-1058
▁تغ	-1059
▁امت	-1060
▁بچھ	-1061
▁ماہ	-1062
▁وعد	-1063
▁ولی	-1064
▁ہوس	-1065
▁بکھر	-1066
▁صاحب	-1067
▁غبار	-1068
▁فریب	-1069
▁نیاز	-1070
▁کہئے	-1071
▁کہنا	-1072
▁دیوانہ	-1073
دو	-1074
گو	-1075
لاب	-1076
▁جز	-1077
▁فس	-1078
▁پھ	-1079
▁یع	-1080
▁آزم	-1081
▁جاگ	-1082
▁جسم	-1083
▁جھو	-1084
▁سبب	-1085
▁سور	-1086
▁قتل	-1087
▁جواب	-1088
▁خوشی	-1089
▁رہتا	-1090
▁سکتی	-1091
▁نیند	-1092
▁گلشن	-1093
▁یارو	-1094
▁تغافل	-1095
▁دیکھے	-1096
▁سامنے	-1097
▁کیونکر	-1098
▁ہاتھوں	-1099
▁غل	-1100
نجیر	-1101
▁بھو	-1102
▁جگہ	-1103
▁حرف	-1104
▁رقی	-1105
▁شاد	-1106
▁شعر	-1107
▁صرف	-1108
▁پہچ	-1109
▁کوچ	-1110
▁ہنر	-1111
▁آئیں	-1112
▁قطرہ	-1113
▁وصال	-1114
▁پتھر	-1115
▁زنجیر	-1116
▁سمندر	-1117
▁اعتبار	-1118
عظ	-1119
ازہ	-1120
شتہ	-1121
ہرے	-1122
▁برس	-1123
▁تنگ	-1124
▁رند	-1125
▁وار	-1126
▁ٹوٹ	-1127
▁تلاش	-1128
▁زندہ	-1129
▁ساغر	-1130
▁سورج	-1131
▁سینے	-1132
▁عزیز	-1133
▁کافر	-1134
▁ہرگز	-1135
▁جائیے	-1136
▁اختیار	-1137
جا	-1138
طن	-1139
▁کٹ	-1140
▁گن	-1141
▁بخش	-1142
▁تیز	-1143
▁داد	-1144
▁مات	-1145
▁مسا	-1146
▁چھو	-1147
▁کاش	-1148
▁بلبل	-1149
▁جلوۂ	-1150
▁حساب	-1151
▁رقیب	-1152
▁رہیں	-1153
▁ولیؔ	-1154
▁پائے	-1155
حل	-1156
مل	-1157
دار	-1158
سنؔ	-1159
ٹوں	-1160
یدہ	-1161
▁از	-1162
▁دہ	-1163
▁سپ	-1164
▁نب	-1165
▁آرا	-1166
▁بیم	-1167
▁توڑ	-1168
▁جوں	-1169
▁زہر	-1170
▁صنم	-1171
▁غنچ	-1172
▁چکا	-1173
▁گلہ	-1174
▁گوش	-1175
▁اچھی	-1176
▁مزاج	-1177
▁خاموش	-1178
▁محسنؔ	-1179
بط	-1180
دب	-1181
در	-1182
غاں	-1183
لیم	-1184
▁آنا	-1185
▁شاع	-1186
▁فصل	-1187
▁فنا	-1188
▁کوہ	-1189
▁دیتا	-1190
▁سائے	-1191
▁سودا	-1192
▁مدعا	-1193
▁واعظ	-1194
▁کتنا	-1195
▁کرنے	-1196
▁گزری	-1197
▁جانتا	-1198
▁دھواں	-1199
رہ	-1200
سط	-1201
سار	-1202
ناہ	-1203
▁خیر	-1204
▁درم	-1205
▁زیر	-1206
▁سیا	-1207
▁مرگ	-1208
▁جوہر	-1209
▁دلوں	-1210
▁واسط	-1211
▁چہرہ	-1212
▁یعنی	-1213
▁دیدار	-1214
▁لوگوں	-1215
ائل	-1216
ابل	-1217
بال	-1218
ندہ	-1219
▁آغ	-1220
▁تج	-1221
▁چر	-1222
▁ایم	-1223
▁خلو	-1224
▁سیر	-1225
▁بادہ	-1226
▁زبان	-1227
▁شکست	-1228
▁نصیب	-1229
▁کتنی	-1230
▁کتنے	-1231
▁کہنے	-1232
▁گماں	-1233
▁شکایت	-1234
▁سمجھتے	-1235
لت	-1236
وئے	-1237
ھال	-1238
▁عش	-1239
▁پس	-1240
▁اکی	-1241
▁تلک	-1242
▁حشر	-1243
▁خطا	-1244
▁سزا	-1245
▁ویس	-1246
▁پڑا	-1247
▁پیچ	-1248
▁اٹھے	-1249
▁دیدۂ	-1250
▁مانا	-1251
▁مطلب	-1252
▁چارہ	-1253
▁کیسا	-1254
▁اندھی	-1255
▁برباد	-1256
▁جوانی	-1257
▁مانگے	-1258
▁چاہئے	-1259
▁پریشاں	-1260
ٹک	-1261
اہد	-1262
گار	-1263
▁آم	-1264
▁دش	-1265
بانی	-1266
▁است	-1267
▁دوا	-1268
▁رسم	-1269
▁زار	-1270
▁عقل	-1271
▁ٹھک	-1272
▁اکبر	-1273
▁بیاں	-1274
▁خانۂ	-1275
▁دھوپ	-1276
▁زاہد	-1277
▁ظاہر	-1278
▁ٹھہر	-1279
▁پہلو	-1280
▁چہرے	-1281
▁کھول	-1282
▁جالبؔ	-1283
▁روشنی	-1284
▁تمہاری	-1285
عل	-1286
لۂ	-1287
طرت	-1288
▁تپ	-1289
▁رح	-1290
▁صف	-1291
▁وج	-1292
▁بیچ	-1293
▁جنگ	-1294
▁جنہ	-1295
▁حلق	-1296
▁رہو	-1297
▁صاف	-1298
▁نئی	-1299
▁پار	-1300
▁آباد	-1301
▁جمال	-1302
▁رہتے	-1303
▁سینہ	-1304
▁طاقت	-1305
▁فطرت	-1306
▁لگتی	-1307
▁نہاں	-1308
▁چاہے	-1309
▁گویا	-1310
▁انسان	-1311
▁درکار	-1312
▁واسطے	-1313
▁دیکھوں	-1314
▁رسوائی	-1315
جو	-1316
نجر	-1317
ھتے	-1318
یئے	-1319
▁تڑ	-1320
▁رق	-1321
▁زن	-1322
▁لڑ	-1323
▁نس	-1324
▁گہ	-1325
▁جرم	-1326
▁حرم	-1327
▁سخت	-1328
▁سکا	-1329
▁شکر	-1330
▁طوف	-1331
▁قفس	-1332
▁نئے	-1333
▁پان	-1334
▁پنہ	-1335
▁کسے	-1336
▁کہی	-1337
▁گفت	-1338
▁بجھا	-1339
▁بچھڑ	-1340
▁تھوڑ	-1341
▁دماغ	-1342
▁رستہ	-1343
▁ساحل	-1344
▁سبھی	-1345
▁شبنم	-1346
▁شعلہ	-1347
▁شوخی	-1348
▁لالہ	-1349
▁لکھا	-1350
▁ملنے	-1351
▁مکاں	-1352
▁اکبرؔ	-1353
▁جدائی	-1354
▁ای	-1355
▁شے	-1356
▁عن	-1357
▁بھا	-1358
▁حری	-1359
▁زیا	-1360
▁عدم	-1361
▁فقط	-1362
▁مقت	-1363
▁چمک	-1364
▁کئے	-1365
▁اتنے	-1366
▁اداس	-1367
▁بستی	-1368
▁تصور	-1369
▁خانے	-1370
▁خزاں	-1371
▁عجیب	-1372
▁لینا	-1373
▁میاں	-1374
▁چھیڑ	-1375
▁کتاب	-1376
▁کدھر	-1377
▁گریہ	-1378
▁احسان	-1379
▁انجمن	-1380
▁جنہیں	-1381
▁فریاد	-1382
▁مسافر	-1383
▁والوں	-1384
▁پہنچا	-1385
▁پیارے	-1386
اق	-1387
دی	-1388
سوس	-1389
شید	-1390
لوں	-1391
▁بگ	-1392
▁حک	-1393
▁کع	-1394
شانی	-1395
نگام	-1396
▁بست	-1397
▁بسم	-1398
▁بوس	-1399
▁جست	-1400
▁خفا	-1401
▁طرز	-1402
▁عیش	-1403
▁مرد	-1404
▁پلک	-1405
▁چین	-1406
▁امتح	-1407
▁خنجر	-1408
▁رستے	-1409
▁سوئے	-1410
▁شکوہ	-1411
▁محشر	-1412
▁پائی	-1413
▁ہنوز	-1414
▁انساں	-1415
▁مانند	-1416
▁مجنوں	-1417
▁ہنگام	-1418
▁تمہارا	-1419
▁دیکھتا	-1420
صر	-1421
الے	-1422
جئے	-1423
جوم	-1424
شتۂ	-1425
▁خل	-1426
▁دب	-1427
▁رت	-1428
▁وع	-1429
▁چڑ	-1430
▁ارم	-1431
▁اڑا	-1432
▁بام	-1433
▁بسر	-1434
▁بچا	-1435
▁بڑا	-1436
▁بیک	-1437
▁ظلم	-1438
▁علم	-1439
▁مسک	-1440
▁مسی	-1441
▁ملی	-1442
▁کئی	-1443
▁اسیر	-1444
▁تکلف	-1445
▁جگرؔ	-1446
▁رکھے	-1447
▁شیشہ	-1448
▁غریب	-1449
▁فغاں	-1450
▁مرنے	-1451
▁ملتی	-1452
▁نشاط	-1453
▁کوئے	-1454
▁کھیل	-1455
▁گراں	-1456
▁گزار	-1457
▁گناہ	-1458
▁بیٹھا	-1459
▁راتیں	-1460
▁رکھتا	-1461
▁سلامت	-1462
▁نکلتی	-1463
▁پنہاں	-1464
▁دکھائی	-1465
رگ	-1466
فظ	-1467
الا	-1468
برا	-1469
سائی	-1470
ستان	-1471
▁بان	-1472
▁بجا	-1473
▁برگ	-1474
▁تھک	-1475
▁حنا	-1476
▁دہر	-1477
▁ریز	-1478
▁قبا	-1479
▁ناک	-1480
▁چکے	-1481
▁کمی	-1482
▁گہر	-1483
▁آساں	-1484
▁بدلا	-1485
▁داری	-1486
▁سایہ	-1487
▁غافل	-1488
▁مسیح	-1489
▁معنی	-1490
▁نغمہ	-1491
▁وعدہ	-1492
▁کھلے	-1493
▁گردن	-1494
▁اٹھتا	-1495
▁بنایا	-1496
▁دوستی	-1497
▁زنداں	-1498
▁پہنچے	-1499
▁چھوڑا	-1500
▁گھبرا	-1501
▁خورشید	-1502
▁کارواں	-1503
وۂ	-1504
کس	-1505
یۂ	-1506
ادت	-1507
راز	-1508
شتر	-1509
▁خس	-1510
▁نز	-1511
ینوں	-1512
▁بول	-1513
▁بہا	-1514
▁خوف	-1515
▁لفظ	-1516
▁لوں	-1517
▁پتا	-1518
▁چلی	-1519
▁بسمل	-1520
▁جہان	-1521
▁خالی	-1522
▁خرام	-1523
▁خلوت	-1524
▁دینا	-1525
▁راحت	-1526
▁سوال	-1527
▁صیاد	-1528
▁قریب	-1529
▁مستی	-1530
▁اکیلا	-1531
▁باتوں	-1532
▁بازار	-1533
▁جستجو	-1534
▁شیریں	-1535
▁پھرتے	-1536
▁کہانی	-1537
▁آوارگی	-1538
▁بیاباں	-1539
▁گلستاں	-1540
عی	-1541
لس	-1542
ارت	-1543
برو	-1544
نگی	-1545
▁آف	-1546
▁بٹ	-1547
▁زی	-1548
▁طل	-1549
سیمؔ	-1550
▁اول	-1551
▁بڑی	-1552
▁بید	-1553
▁تقا	-1554
▁درو	-1555
▁ستا	-1556
▁سرو	-1557
▁سما	-1558
▁شان	-1559
▁عار	-1560
▁قید	-1561
▁محو	-1562
▁مٹا	-1563
▁نظم	-1564
▁نما	-1565
▁وہم	-1566
▁کلی	-1567
▁گلے	-1568
▁ہون	-1569
▁افسر	-1570
▁خوار	-1571
▁رفتہ	-1572
▁روئے	-1573
▁سادہ	-1574
▁سکتے	-1575
▁صحبت	-1576
▁منظر	-1577
▁پاتے	-1578
▁کمال	-1579
▁گرچہ	-1580
▁حالیؔ	-1581
▁سراپا	-1582
▁وسیمؔ	-1583
▁پوچھو	-1584
▁پوچھے	-1585
▁پہچان	-1586
▁گفتگو	-1587
▁ہمیشہ	-1588
اس	-1589
تم	-1590
قہ	-1591
بور	-1592
ندی	-1593
▁تل	-1594
▁ہا	-1595
طراب	-1596
▁احت	-1597
▁الت	-1598
▁اچھ	-1599
▁تلو	-1600
▁تڑپ	-1601
▁دان	-1602
▁روٹ	-1603
▁مار	-1604
▁پڑی	-1605
▁پیک	-1606
▁کمر	-1607
▁ہار	-1608
▁ہمت	-1609
▁بازی	-1610
▁بوجھ	-1611
▁تازہ	-1612
▁دعوی	-1613
▁دنوں	-1614
▁رخصت	-1615
▁رونے	-1616
▁رہنے	-1617
▁سکوں	-1618
▁فقیر	-1619
▁مقتل	-1620
▁مقدر	-1621
▁پردے	-1622
▁کہیے	-1623
▁ہجوم	-1624
▁آئینۂ	-1625
▁آفتاب	-1626
▁بیمار	-1627
▁زیادہ	-1628
▁دیکھنے	-1629
▁چاہیئے	-1630
رو	-1631
زن	-1632
زے	-1633
صد	-1634
قا	-1635
قع	-1636
امی	-1637
اہی	-1638
ختہ	-1639
روں	-1640
ستا	-1641
قیں	-1642
میر	-1643
وال	-1644
چھا	-1645
کیں	-1646
▁رم	-1647
▁لٹ	-1648
انگی	-1649
▁تقد	-1650
▁جنت	-1651
▁سرم	-1652
▁سنو	-1653
▁طور	-1654
▁فرو	-1655
▁نوا	-1656
▁وطن	-1657
▁کیف	-1658
▁آرام	-1659
▁بسکہ	-1660
▁تشنہ	-1661
▁تعلق	-1662
▁جیتے	-1663
▁دولت	-1664
▁زمین	-1665
▁سنتے	-1666
▁شہید	-1667
▁نازک	-1668
▁نشاں	-1669
▁نشیں	-1670
▁وجود	-1671
▁پھری	-1672
▁گھٹا	-1673
▁ہنسی	-1674
▁فیصلہ	-1675
▁نظارہ	-1676
▁پرواز	-1677
▁ہوائے	-1678
▁اٹھائے	-1679
▁داستاں	-1680
▁پروانہ	-1681
▁چاندنی	-1682
جد	-1683
جے	-1684
کش	-1685
ہب	-1686
ائش	-1687
ماں	-1688
ہور	-1689
یبت	-1690
▁اخ	-1691
▁ار	-1692
▁اگ	-1693
▁زر	-1694
▁ازل	-1695
▁حور	-1696
▁دلی	-1697
▁سبز	-1698
▁سمت	-1699
▁شکل	-1700
▁عدو	-1701
▁علا	-1702
▁عکس	-1703
▁مرغ	-1704
▁ممک	-1705
▁مٹی	-1706
▁نات	-1707
▁نگر	-1708
▁نیم	-1709
▁چال	-1710
▁کرن	-1711
▁الجھ	-1712
▁الٹی	-1713
▁جینے	-1714
▁غرور	-1715
▁لکھن	-1716
▁ملتے	-1717
▁نامہ	-1718
▁وعدۂ	-1719
▁پرست	-1720
▁پیام	-1721
▁کعبہ	-1722
▁گرمی	-1723
▁ہووے	-1724
▁انجام	-1725
▁اگرچہ	-1726
▁بیداد	-1727
▁تقدیر	-1728
▁حوصلہ	-1729
▁مسکرا	-1730
▁پیرہن	-1731
▁بیگانہ	-1732
▁درمیاں	-1733
ئش	-1734
عف	-1735
تاع	-1736
وسف	-1737
ڑوں	-1738
یان	-1739
▁آس	-1740
▁فا	-1741
▁پک	-1742
▁باب	-1743
▁بحر	-1744
▁دری	-1745
▁زور	-1746
▁سہل	-1747
▁سیک	-1748
▁سیہ	-1749
▁شیش	-1750
▁عام	-1751
▁غفل	-1752
▁قاف	-1753
▁نمک	-1754
▁پاک	-1755
▁گیس	-1756
▁ابھر	-1757
▁بارش	-1758
▁باہر	-1759
▁بیٹھ	-1760
▁جلتے	-1761
▁سارا	-1762
▁شعلۂ	-1763
▁متاع	-1764
▁ممکن	-1765
▁نالے	-1766
▁گوہر	-1767
▁ہمدم	-1768
▁یقیں	-1769
▁یوسف	-1770
▁انتہا	-1771
▁مصیبت	-1772
▁ناداں	-1773
▁یاروں	-1774
دھ	-1775
چل	-1776
چے	-1777
▁اع	-1778
▁حی	-1779
▁رع	-1780
▁چو	-1781
▁افس	-1782
▁دیے	-1783
▁سنے	-1784
▁شنا	-1785
▁صفا	-1786
▁فرق	-1787
▁قلم	-1788
▁لئے	-1789
▁منا	-1790
▁نار	-1791
▁پتہ	-1792
▁پلٹ	-1793
▁چرخ	-1794
▁آغوش	-1795
▁بنتا	-1796
▁بڑھا	-1797
▁بھری	-1798
▁خوبی	-1799
▁دھڑک	-1800
▁دیدہ	-1801
▁لیتا	-1802
▁ماتم	-1803
▁ملنا	-1804
▁مینا	-1805
▁پانچ	-1806
▁گداز	-1807
▁گلاب	-1808
▁یارب	-1809
▁آشیاں	-1810
▁جانیں	-1811
▁حیراں	-1812
▁دشوار	-1813
▁دکھلا	-1814
▁راستہ	-1815
▁صدیوں	-1816
▁منتظر	-1817
▁ٹھہرا	-1818
▁ٹھہری	-1819
▁سنبھال	-1820
▁نگاہیں	-1821
حہ	-1822
خی	-1823
ظہ	-1824
ازی	-1825
رور	-1826
رگس	-1827
زام	-1828
لاک	-1829
ناب	-1830
▁دک	-1831
▁عب	-1832
▁فن	-1833
▁لک	-1834
▁پن	-1835
▁آمد	-1836
▁ادب	-1837
▁الم	-1838
▁برہ	-1839
▁بڑے	-1840
▁جمع	-1841
▁جور	-1842
▁دوس	-1843
▁سدا	-1844
▁شرر	-1845
▁شمش	-1846
▁طرب	-1847
▁قصہ	-1848
▁قیس	-1849
▁لعل	-1850
▁پیغ	-1851
▁چور	-1852
▁کسو	-1853
▁بارے	-1854
▁برپا	-1855
▁بوسہ	-1856
▁جانب	-1857
▁حالت	-1858
▁حریف	-1859
▁رواں	-1860
▁رہتی	-1861
▁علاج	-1862
▁غفلت	-1863
▁لائے	-1864
▁محرم	-1865
▁ملیں	-1866
▁نرگس	-1867
▁نقاب	-1868
▁وہیں	-1869
▁چاہا	-1870
▁گھڑی	-1871
▁افسوس	-1872
▁اقرار	-1873
▁الزام	-1874
▁اوروں	-1875
▁تلوار	-1876
▁خوباں	-1877
▁سامان	-1878
▁ساماں	-1879
▁سنبھل	-1880
▁شاعری	-1881
▁لکھوں	-1882
▁موجود	-1883
▁کھلتا	-1884
▁مہرباں	-1885
▁نگاہوں	-1886
▁ہونٹوں	-1887
ائم	-1888
رتے	-1889
سعت	-1890
فیق	-1891
نبی	-1892
وان	-1893
گان	-1894
▁ری	-1895
رائے	-1896
▁خرم	-1897
▁خشک	-1898
▁دلا	-1899
▁دھر	-1900
▁ربط	-1901
▁ریت	-1902
▁عید	-1903
▁غلط	-1904
▁پچھ	-1905
▁گرہ	-1906
▁گلا	-1907
▁آزار	-1908
▁بدلے	-1909
▁بہتر	-1910
▁جادو	-1911
▁جتنا	-1912
▁جلوے	-1913
▁جنون	-1914
▁جنگل	-1915
▁حباب	-1916
▁دیتی	-1917
▁زیست	-1918
▁سکوت	-1919
▁قبول	-1920
▁مارا	-1921
▁مرنا	-1922
▁ملاق	-1923
▁مکان	-1924
▁نگار	-1925
▁وسعت	-1926
▁پردۂ	-1927
▁پسند	-1928
▁پیاس	-1929
▁کشتی	-1930
▁انکار	-1931
▁بندگی	-1932
▁دشمنی	-1933
▁عاشقی	-1934
▁لیجئے	-1935
▁ٹھہرے	-1936
▁پیغام	-1937
▁کیجیے	-1938
▁ہجراں	-1939
▁لاکھوں	-1940
▁ویرانی	-1941
▁پوچھتے	-1942
▁گرفتار	-1943
▁ہزاروں	-1944
بے	-1945
سب	-1946
فو	-1947
نک	-1948
جاد	-1949
داب	-1950
نات	-1951
نام	-1952
▁تح	-1953
▁زد	-1954
▁قط	-1955
▁ٹپ	-1956
شتوں	-1957
گرنہ	-1958
▁ایا	-1959
▁خال	-1960
▁ختم	-1961
▁درس	-1962
▁رحم	-1963
▁ساد	-1964
▁سیل	-1965
▁سیں	-1966
▁شجر	-1967
▁فرد	-1968
▁لخت	-1969
▁مکر	-1970
▁نشہ	-1971
▁ننگ	-1972
▁نیر	-1973
▁واہ	-1974
▁چکی	-1975
▁کدہ	-1976
▁کدے	-1977
▁گار	-1978
▁آخری	-1979
▁بتاں	-1980
▁برہم	-1981
▁بھرے	-1982
▁جواں	-1983
▁خمار	-1984
▁دینے	-1985
▁رسوا	-1986
▁روتے	-1987
▁سایۂ	-1988
▁شباب	-1989
▁شمار	-1990
▁قابل	-1991
▁لایا	-1992
▁لبوں	-1993
▁لینے	-1994
▁مجھی	-1995
▁نشان	-1996
▁وعدے	-1997
▁ویسے	-1998
▁پروا	-1999
▁کبھو	-2000
▁کلام	-2001
▁کوچۂ	-2002
▁گنوا	-2003
▁گوار	-2004
▁اجنبی	-2005
▁احتیا	-2006
▁اقبال	-2007
▁ایجاد	-2008
▁تھوڑی	-2009
▁فسانہ	-2010
▁نکلتے	-2011
▁وگرنہ	-2012
▁پوچھا	-2013
▁ملاقات	-2014
اڑ	-2015
بش	-2016
بۂ	-2017
شش	-2018
چا	-2019
ازت	-2020
بات	-2021
بری	-2022
ساس	-2023
شیں	-2024
وشی	-2025
یاب	-2026
▁اص	-2027
▁اغ	-2028
▁حر	-2029
▁دف	-2030
▁قا	-2031
▁نخ	-2032
▁پگ	-2033
▁چا	-2034
▁ہل	-2035
ئنات	-2036
تابی	-2037
ظہار	-2038
لیاں	-2039
▁اجل	-2040
▁ارا	-2041
▁بگڑ	-2042
▁بہل	-2043
▁جھک	-2044
▁جیب	-2045
▁خند	-2046
▁دود	-2047
▁دہن	-2048
▁سرد	-2049
▁سعی	-2050
▁شرط	-2051
▁شکن	-2052
▁عنا	-2053
▁عیب	-2054
▁فرم	-2055
▁محر	-2056
▁مشت	-2057
▁مفت	-2058
▁ملک	-2059
▁مند	-2060
▁ناچ	-2061
▁ناگ	-2062
▁واد	-2063
▁ولے	-2064
▁پڑھ	-2065
▁کاغ	-2066
▁گیر	-2067
▁آزما	-2068
▁اندر	-2069
▁بلند	-2070
▁بھیگ	-2071
▁جنبش	-2072
▁خطرہ	-2073
▁دھند	-2074
▁رشتۂ	-2075
▁رونا	-2076
▁زیاں	-2077
▁سراب	-2078
▁سکھا	-2079
▁شاعر	-2080
▁طلسم	-2081
▁غنچہ	-2082
▁فرما	-2083
▁لیلی	-2084
▁مراد	-2085
▁مزار	-2086
▁مسجد	-2087
▁مسلم	-2088
▁نالۂ	-2089
▁نسیم	-2090
▁کوچے	-2091
▁کھلی	-2092
▁کھنچ	-2093
▁گزرا	-2094
▁آوارہ	-2095
▁احباب	-2096
▁احساس	-2097
▁اظہار	-2098
▁ایمان	-2099
▁تسلیم	-2100
▁حالات	-2101
▁خامشی	-2102
▁دھوکا	-2103
▁راستے	-2104
▁رنگیں	-2105
▁ستارے	-2106
▁شمشیر	-2107
▁مقابل	-2108
▁امتحاں	-2109
▁داستان	-2110
▁دیکھیں	-2111
▁روزگار	-2112
▁ستاروں	-2113
▁چراغاں	-2114
▁کائنات	-2115
جی	-2116
نت	-2117
تاق	-2118
شاد	-2119
صلے	-2120
فرت	-2121
لاف	-2122
لیب	-2123
لیف	-2124
نما	-2125
کتا	-2126
ہاد	-2127
▁جر	-2128
▁شد	-2129
▁قی	-2130
بارک	-2131
دبیر	-2132
روری	-2133
نائی	-2134
ندھی	-2135
گانی	-2136
▁آنگ	-2137
▁بخت	-2138
▁بہر	-2139
▁دین	-2140
▁سال	-2141
▁سلس	-2142
▁عجز	-2143
▁غنی	-2144
▁مای	-2145
▁مخت	-2146
▁کشی	-2147
▁گام	-2148
▁آگہی	-2149
▁بتوں	-2150
▁بستر	-2151
▁بندہ	-2152
▁بوئے	-2153
▁تبسم	-2154
▁تسلی	-2155
▁جتنے	-2156
▁جھوٹ	-2157
▁جھکا	-2158
▁جیسا	-2159
▁جینا	-2160
▁حسیں	-2161
▁خندہ	-2162
▁دلبر	-2163
▁روٹھ	-2164
▁شاہد	-2165
▁طالب	-2166
▁عادت	-2167
▁فتنہ	-2168
▁قدرت	-2169
▁لمحہ	-2170
▁مرتا	-2171
▁مروت	-2172
▁ٹوٹے	-2173
▁پھیر	-2174
▁کرشم	-2175
▁کوشش	-2176
▁کہتی	-2177
▁اجازت	-2178
▁احوال	-2179
▁ارمان	-2180
▁اشکوں	-2181
▁بھولے	-2182
▁تاروں	-2183
▁تدبیر	-2184
▁رفتار	-2185
▁فرہاد	-2186
▁مبارک	-2187
▁محروم	-2188
▁مسیحا	-2189
▁مشتاق	-2190
▁گلیوں	-2191
▁افسردہ	-2192
▁باندھا	-2193
▁دیوانے	-2194
▁پوچھتا	-2195
▁باندھتے	-2196
صے	-2197
قف	-2198
جات	-2199
خیر	-2200
داں	-2201
شیم	-2202
عار	-2203
ویں	-2204
یرے	-2205
▁بح	-2206
▁طب	-2207
▁ظل	-2208
▁لپ	-2209
▁وو	-2210
صلحت	-2211
▁بشر	-2212
▁تلخ	-2213
▁جگا	-2214
▁جیے	-2215
▁حاد	-2216
▁خرد	-2217
▁خلق	-2218
▁دگر	-2219
▁راس	-2220
▁رقم	-2221
▁رون	-2222
▁زان	-2223
▁صید	-2224
▁طری	-2225
▁معم	-2226
▁مید	-2227
▁نشۂ	-2228
▁پلا	-2229
▁پیڑ	-2230
▁چون	-2231
▁گرا	-2232
▁گنہ	-2233
▁گھٹ	-2234
▁ہند	-2235
▁یاس	-2236
▁آغاز	-2237
▁آنگن	-2238
▁ابرو	-2239
▁انجم	-2240
▁اٹھی	-2241
▁باری	-2242
▁بہلا	-2243
▁تجلی	-2244
▁جبیں	-2245
▁جدھر	-2246
▁حلقۂ	-2247
▁خرمن	-2248
▁دراز	-2249
▁رائی	-2250
▁روزن	-2251
▁سرمہ	-2252
▁سرگر	-2253
▁سنتا	-2254
▁سوچا	-2255
▁شکار	-2256
▁فروغ	-2257
▁معام	-2258
▁نصیر	-2259
▁نظمؔ	-2260
▁وائے	-2261
▁والو	-2262
▁ٹکڑے	-2263
▁پشیم	-2264
▁پھیل	-2265
▁آئینے	-2266
▁اغیار	-2267
▁تکلیف	-2268
▁سادگی	-2269
▁سوچتا	-2270
▁صدائے	-2271
▁مصلحت	-2272
▁ملامت	-2273
▁ناکام	-2274
▁وفائی	-2275
▁پلکوں	-2276
▁گردوں	-2277
▁گفتار	-2278
▁بھولنے	-2279
▁خاموشی	-2280
▁زندگانی	-2281
اع	-2282
می	-2283
ہت	-2284
داع	-2285
شان	-2286
شتے	-2287
فات	-2288
کین	-2289
یدن	-2290
▁لح	-2291
▁ند	-2292
▁چم	-2293
ئیاں	-2294
▁آہٹ	-2295
▁ابت	-2296
▁بقا	-2297
▁تپش	-2298
▁تہی	-2299
▁خاص	-2300
▁خان	-2301
▁رقص	-2302
▁روا	-2303
▁زرد	-2304
▁سلی	-2305
▁سنی	-2306
▁سود	-2307
▁سید	-2308
▁طبع	-2309
▁عیس	-2310
▁قبر	-2311
▁قرب	-2312
▁لاش	-2313
▁لرز	-2314
▁مال	-2315
▁مزہ	-2316
▁مسئ	-2317
▁نشے	-2318
▁نگۂ	-2319
▁نیک	-2320
▁وجہ	-2321
▁پاب	-2322
▁پرس	-2323
▁چنگ	-2324
▁کشا	-2325
▁کشت	-2326
▁کفن	-2327
▁آبرو	-2328
▁ایام	-2329
▁بادل	-2330
▁توجہ	-2331
▁خندۂ	-2332
▁دیار	-2333
▁رشتہ	-2334
▁روتا	-2335
▁زنار	-2336
▁سرور	-2337
▁سوچو	-2338
▁سیاہ	-2339
▁شرما	-2340
▁غلام	-2341
▁غیرت	-2342
▁قامت	-2343
▁قربت	-2344
▁لباس	-2345
▁لمحے	-2346
▁نسبت	-2347
▁نفرت	-2348
▁نکال	-2349
▁کارو	-2350
▁آسمان	-2351
▁اجالا	-2352
▁اندیش	-2353
▁اٹھتے	-2354
▁برابر	-2355
▁بیتاب	-2356
▁بیکسی	-2357
▁خرابی	-2358
▁راتوں	-2359
▁رخسار	-2360
▁سناٹا	-2361
▁عنایت	-2362
▁غنیمت	-2363
▁غیروں	-2364
▁قراری	-2365
▁قربان	-2366
▁مجبور	-2367
▁نصیرؔ	-2368
▁نظریں	-2369
▁پھرتا	-2370
▁کھائی	-2371
▁گوارا	-2372
▁آزمائش	-2373
▁بیتابی	-2374
▁دعائیں	-2375
▁دوستوں	-2376
▁کامیاب	-2377
▁ہنگامہ	-2378
طا	-2379
غت	-2380
ادر	-2381
جاز	-2382
دگی	-2383
شار	-2384
شنۂ	-2385
طرۂ	-2386
مان	-2387
ورا	-2388
یدی	-2389
▁خز	-2390
▁شگ	-2391
▁طع	-2392
▁طے	-2393
▁قل	-2394
▁قم	-2395
▁مآ	-2396
ائیے	-2397
ستگی	-2398
فاقت	-2399
قلاب	-2400
ھوکر	-2401
یاری	-2402
یروں	-2403
▁باع	-2404
▁بجز	-2405
▁بسا	-2406
▁جشن	-2407
▁حکم	-2408
▁خرا	-2409
▁رفت	-2410
▁زدہ	-2411
▁سبک	-2412
▁عمل	-2413
▁محت	-2414
▁مشق	-2415
▁منص	-2416
▁موڑ	-2417
▁مہک	-2418
▁نرم	-2419
▁کشم	-2420
▁کفر	-2421
▁گنج	-2422
▁گوں	-2423
▁بادۂ	-2424
▁بازو	-2425
▁بجلی	-2426
▁بولے	-2427
▁بھاگ	-2428
▁بھید	-2429
▁تہمت	-2430
▁جانی	-2431
▁جناب	-2432
▁جھون	-2433
▁جیوں	-2434
▁رحمت	-2435
▁رہنا	-2436
▁ساعت	-2437
▁سبزہ	-2438
▁سکون	-2439
▁شریک	-2440
▁شکوۂ	-2441
▁ظلمت	-2442
▁عشاق	-2443
▁عشرت	-2444
▁غنچۂ	-2445
▁لگتے	-2446
▁لگیں	-2447
▁مائل	-2448
▁مانع	-2449
▁موتی	-2450
▁نواز	-2451
▁نکہت	-2452
▁وداع	-2453
▁ٹوٹا	-2454
▁پاتا	-2455
▁پرسش	-2456
▁پڑتا	-2457
▁پھرے	-2458
▁کروٹ	-2459
▁آندھی	-2460
▁اشعار	-2461
▁اعجاز	-2462
▁اٹھتی	-2463
▁اٹھیں	-2464
▁بارہا	-2465
▁بھاری	-2466
▁بیدار	-2467
▁تشنگی	-2468
▁تکرار	-2469
▁خدائی	-2470
▁رفاقت	-2471
▁رہنما	-2472
▁زمانا	-2473
▁مدتوں	-2474
▁نوائے	-2475
▁ویراں	-2476
▁ٹھوکر	-2477
▁کھلتے	-2478
▁یادوں	-2479
▁اقبالؔ	-2480
▁امتحان	-2481
▁انقلاب	-2482
▁خوابوں	-2483
▁ٹھکانا	-2484
▁پھولوں	-2485
▁چراغوں	-2486
▁کانٹوں	-2487
▁پریشانی	-2488
▁کاروبار	-2489
جن	-2490
سل	-2491
فہ	-2492
قے	-2493
پر	-2494
پن	-2495
ابت	-2496
سوں	-2497
صود	-2498
طرب	-2499
فاظ	-2500
فتر	-2501
لاں	-2502
وند	-2503
چھے	-2504
یاز	-2505
یدا	-2506
▁بز	-2507
▁رز	-2508
▁سف	-2509
▁غش	-2510
▁چی	-2511
▁کج	-2512
▁ہش	-2513
داوت	-2514
رورت	-2515
▁آست	-2516
▁آفت	-2517
▁بنی	-2518
▁تحر	-2519
▁تخت	-2520
▁جلے	-2521
▁حدی	-2522
▁حرص	-2523
▁خیم	-2524
▁رلا	-2525
▁زیب	-2526
▁سجن	-2527
▁سنج	-2528
▁سکی	-2529
▁طاق	-2530
▁طول	-2531
▁عزت	-2532
▁لٹا	-2533
▁ماں	-2534
▁محب	-2535
▁مغر	-2536
▁میک	-2537
▁پنج	-2538
▁پھو	-2539
▁چاپ	-2540
▁گور	-2541
▁آویں	-2542
▁انیس	-2543
▁اچھے	-2544
▁بساط	-2545
▁بھرا	-2546
▁تباہ	-2547
▁جھلک	-2548
▁جیسی	-2549
▁حسین	-2550
▁دانہ	-2551
▁دفتر	-2552
▁رکھی	-2553
▁سجدہ	-2554
▁سلام	-2555
▁سنور	-2556
▁سکیں	-2557
▁شامل	-2558
▁شیشے	-2559
▁غربت	-2560
▁فردا	-2561
▁قائل	-2562
▁قاصد	-2563
▁قیمت	-2564
▁لائی	-2565
▁مارے	-2566
▁مرتے	-2567
▁موئے	-2568
▁نشتر	-2569
▁نمود	-2570
▁پھون	-2571
▁پیکر	-2572
▁چاہت	-2573
▁کرنی	-2574
▁کشتہ	-2575
▁کھڑا	-2576
▁کھڑے	-2577
▁گوشۂ	-2578
▁گیسو	-2579
▁آشفتہ	-2580
▁ابتدا	-2581
▁اداسی	-2582
▁ارباب	-2583
▁اسرار	-2584
▁اشارے	-2585
▁افلاک	-2586
▁بدلتے	-2587
▁بنائے	-2588
▁تعمیر	-2589
▁تھوڑا	-2590
▁تیرگی	-2591
▁دوسرا	-2592
▁زلفوں	-2593
▁ستارہ	-2594
▁سہارا	-2595
▁شکستہ	-2596
▁طوفان	-2597
▁طوفاں	-2598
▁عداوت	-2599
▁لگائے	-2600
▁محتسب	-2601
▁مختصر	-2602
▁مسئلہ	-2603
▁مقصود	-2604
▁ناشاد	-2605
▁نیرنگ	-2606
▁کشمکش	-2607
▁گلزار	-2608
▁ہنستے	-2609
▁ہوئیں	-2610
▁آشنائی	-2611
▁التفات	-2612
▁سمجھتا	-2613
▁پریشان	-2614
▁کھینچی	-2615
▁دیوانگی	-2616
▁رائیگاں	-2617
عم	-2618
نو	-2619
وج	-2620
وک	-2621
چک	-2622
ڑھ	-2623
کل	-2624
ائر	-2625
توں	-2626
خاب	-2627
دوں	-2628
ریر	-2629
قین	-2630
واب	-2631
ڑتے	-2632
کاں	-2633
ھتا	-2634
▁ٹل	-2635
اریخ	-2636
بتلا	-2637
داری	-2638
لانے	-2639
مانی	-2640
یانہ	-2641
▁آشک	-2642
▁الگ	-2643
▁تاج	-2644
▁تلے	-2645
▁تند	-2646
▁جنس	-2647
▁جھی	-2648
▁جیت	-2649
▁خسر	-2650
▁رزق	-2651
▁روک	-2652
▁سجا	-2653
▁سری	-2654
▁صہب	-2655
▁ظرف	-2656
▁عرش	-2657
▁عرص	-2658
▁مآل	-2659
▁مشر	-2660
▁معص	-2661
▁منظ	-2662
▁مور	-2663
▁ناخ	-2664
▁ناس	-2665
▁نقص	-2666
▁نین	-2667
▁ورق	-2668
▁پہر	-2669
▁چوٹ	-2670
▁کاٹ	-2671
▁گنگ	-2672
▁آسان	-2673
▁اترا	-2674
▁تراش	-2675
▁تشنۂ	-2676
▁جادہ	-2677
▁حرام	-2678
▁خامہ	-2679
▁خلاف	-2680
▁خوشا	-2681
▁دانا	-2682
▁دوری	-2683
▁دیئے	-2684
▁رونق	-2685
▁رویا	-2686
▁رہزن	-2687
▁زانو	-2688
▁سراغ	-2689
▁سونا	-2690
▁شعاع	-2691
▁شیوۂ	-2692
▁طائر	-2693
▁عیسی	-2694
▁غارت	-2695
▁فتنے	-2696
▁قائم	-2697
▁قصور	-2698
▁قطرۂ	-2699
▁مجلس	-2700
▁محال	-2701
▁محنت	-2702
▁مرہم	-2703
▁نئیں	-2704
▁نماز	-2705
▁وادی	-2706
▁واقع	-2707
▁وحشی	-2708
▁ویسی	-2709
▁پکار	-2710
▁پہلی	-2711
▁چادر	-2712
▁چلتا	-2713
▁چلتے	-2714
▁چلنا	-2715
▁چھین	-2716
▁کاری	-2717
▁کافی	-2718
▁کامل	-2719
▁گستا	-2720
▁آزادی	-2721
▁اخبار	-2722
▁اسباب	-2723
▁ایماں	-2724
▁بدنام	-2725
▁برسوں	-2726
▁بہانے	-2727
▁تحریر	-2728
▁تسکیں	-2729
▁توفیق	-2730
▁جانوں	-2731
▁جانیے	-2732
▁دوراں	-2733
▁روبرو	-2734
▁رکھوں	-2735
▁زخموں	-2736
▁لمحوں	-2737
▁لکھنا	-2738
▁مایوس	-2739
▁مبتلا	-2740
▁محبوب	-2741
▁مشہور	-2742
▁مہتاب	-2743
▁نشانی	-2744
▁نیازی	-2745
▁پیاسا	-2746
▁پیچھے	-2747
▁چاہتے	-2748
▁گمانی	-2749
▁احتیاط	-2750
▁افسانہ	-2751
▁اٹھایا	-2752
▁دکھایا	-2753
▁سمجھیں	-2754
▁محبتوں	-2755
▁معاملہ	-2756
▁ٹھکانے	-2757
▁کھلتیں	-2758
▁گریزاں	-2759
▁اندھیرے	-2760
▁دیوانوں	-2761
ئل	-2762
تو	-2763
جب	-2764
جز	-2765
خر	-2766
زخ	-2767
فق	-2768
گل	-2769
الع	-2770
اکش	-2771
برت	-2772
بوں	-2773
جیؔ	-2774
دیک	-2775
رتا	-2776
ریف	-2777
ھری	-2778
ینت	-2779
▁اد	-2780
▁بظ	-2781
▁حل	-2782
▁مم	-2783
▁نع	-2784
▁وف	-2785
ساری	-2786
سانۂ	-2787
▁الٹ	-2788
▁بری	-2789
▁برے	-2790
▁بہم	-2791
▁بیت	-2792
▁جبر	-2793
▁جون	-2794
▁جھگ	-2795
▁حصے	-2796
▁خری	-2797
▁دفن	-2798
▁دوش	-2799
▁رفو	-2800
▁ساق	-2801
▁سکو	-2802
▁سکھ	-2803
▁سیم	-2804
▁طفل	-2805
▁علی	-2806
▁عین	-2807
▁فائ	-2808
▁فہم	-2809
▁لشک	-2810
▁مرح	-2811
▁مزے	-2812
▁معت	-2813
▁معر	-2814
▁معش	-2815
▁ناب	-2816
▁ناف	-2817
▁نقد	-2818
▁وام	-2819
▁پئے	-2820
▁پشت	-2821
▁چھٹ	-2822
▁کرب	-2823
▁گھا	-2824
▁گہہ	-2825
▁اوپر	-2826
▁بخشا	-2827
▁بنتی	-2828
▁بوند	-2829
▁بچوں	-2830
▁بڑھے	-2831
▁بھرو	-2832
▁بھٹک	-2833
▁بہشت	-2834
▁تارا	-2835
▁جادۂ	-2836
▁جاوے	-2837
▁جلاد	-2838
▁جہنم	-2839
▁حلقہ	-2840
▁خواں	-2841
▁دعوت	-2842
▁راہی	-2843
▁رہوں	-2844
▁ریزہ	-2845
▁سینۂ	-2846
▁شادی	-2847
▁شانہ	-2848
▁شرار	-2849
▁شہرت	-2850
▁شیدا	-2851
▁طواف	-2852
▁عبرت	-2853
▁فروش	-2854
▁مانی	-2855
▁معاف	-2856
▁ناخن	-2857
▁ناگہ	-2858
▁نبھا	-2859
▁نکلی	-2860
▁پاگل	-2861
▁پرور	-2862
▁پیری	-2863
▁چاہو	-2864
▁چلتی	-2865
▁چھلک	-2866
▁کھلو	-2867
▁گونج	-2868
▁ہندو	-2869
▁ہنسا	-2870
▁یقین	-2871
▁یکتا	-2872
▁یہیں	-2873
▁آرائی	-2874
▁احساں	-2875
▁انیسؔ	-2876
▁بتائے	-2877
▁برسات	-2878
▁بظاہر	-2879
▁تاریخ	-2880
▁تسکین	-2881
▁خموشی	-2882
▁دھیان	-2883
▁دیجئے	-2884
▁دیوان	-2885
▁رکھنا	-2886
▁سلیقہ	-2887
▁سنانے	-2888
▁سنبھا	-2889
▁سویدا	-2890
▁سیاست	-2891
▁شہادت	-2892
▁عریاں	-2893
▁قافلہ	-2894
▁قافلے	-2895
▁معصوم	-2896
▁منظور	-2897
▁ناجیؔ	-2898
▁نزدیک	-2899
▁نگاہی	-2900
▁پھرتی	-2901
▁کرشمہ	-2902
▁کشاکش	-2903
▁کیفیت	-2904
▁گزاری	-2905
▁ہشیار	-2906
▁ہوتیں	-2907
▁انتخاب	-2908
▁خانماں	-2909
▁دروازہ	-2910
▁فقیروں	-2911
▁مستانہ	-2912
▁مسلماں	-2913
▁پشیماں	-2914
▁پیمانہ	-2915
▁گیسوئے	-2916
▁ہوائیں	-2917
▁مہربانی	-2918
تہ	-2919
جت	-2920
حۂ	-2921
غل	-2922
مع	-2923
ھن	-2924
ہے	-2925
یط	-2926
اہن	-2927
بدہ	-2928
خیز	-2929
روف	-2930
سوب	-2931
سون	-2932
صاف	-2933
فاق	-2934
فیؔ	-2935
ماد	-2936
موں	-2937
میا	-2938
ندے	-2939
چیں	-2940
ہلت	-2941
▁بق	-2942
▁خج	-2943
▁خر	-2944
▁رس	-2945
▁عد	-2946
▁مب	-2947
ائیں	-2948
اشاک	-2949
الوں	-2950
لانا	-2951
وقات	-2952
ڑائی	-2953
▁آلو	-2954
▁آہو	-2955
▁ابل	-2956
▁ارز	-2957
▁اصل	-2958
▁افق	-2959
▁امر	-2960
▁انا	-2961
▁اڑی	-2962
▁باہ	-2963
▁بود	-2964
▁تاز	-2965
▁تان	-2966
▁تاک	-2967
▁تجر	-2968
▁تعب	-2969
▁توں	-2970
▁جاو	-2971
▁خلش	-2972
▁خیز	-2973
▁درپ	-2974
▁دھی	-2975
▁سفی	-2976
▁سلو	-2977
▁سون	-2978
▁سڑک	-2979
▁شائ	-2980
▁شدت	-2981
▁شرح	-2982
▁شفا	-2983
▁طوط	-2984
▁عطا	-2985
▁غرق	-2986
▁فخر	-2987
▁قدح	-2988
▁قطع	-2989
▁قلب	-2990
▁قہر	-2991
▁لچک	-2992
▁مئے	-2993
▁مصح	-2994
▁ملو	-2995
▁مچل	-2996
▁ندی	-2997
▁نوم	-2998
▁وجد	-2999
▁ولو	-3000
▁پاش	-3001
▁پند	-3002
▁پوش	-3003
▁پھن	-3004
▁چھن	-3005
▁کشش	-3006
▁آبلہ	-3007
▁آداب	-3008
▁آشوب	-3009
▁آنچل	-3010
▁اجاڑ	-3011
▁اجڑے	-3012
▁افزا	-3013
▁انکھ	-3014
▁بانہ	-3015
▁بجھے	-3016
▁برنگ	-3017
▁بھرم	-3018
▁بینا	-3019
▁جاری	-3020
▁جانو	-3021
▁جونؔ	-3022
▁جھان	-3023
▁جیون	-3024
▁خسرو	-3025
▁خلوص	-3026
▁دانش	-3027
▁دلیل	-3028
▁دھول	-3029
▁راست	-3030
▁راکھ	-3031
▁رشتے	-3032
▁رعنا	-3033
▁رنجش	-3034
▁رنگی	-3035
▁رہبر	-3036
▁زینت	-3037
▁سلیم	-3038
▁سماں	-3039
▁سوزن	-3040
▁شعلے	-3041
▁شناس	-3042
▁شیشۂ	-3043
▁صلیب	-3044
▁طالع	-3045
▁عتاب	-3046
▁غالب	-3047
▁فتنۂ	-3048
▁فسوں	-3049
▁لشکر	-3050
▁لڑکا	-3051
▁ملال	-3052
▁مہلت	-3053
▁ناام	-3054
▁ناتم	-3055
▁ناوک	-3056
▁نباہ	-3057
▁نجات	-3058
▁وبال	-3059
▁پرتو	-3060
▁پردا	-3061
▁پنجۂ	-3062
▁پڑیں	-3063
▁پگھل	-3064
▁پھرا	-3065
▁پیہم	-3066
▁چشمۂ	-3067
▁چلنے	-3068
▁چونک	-3069
▁کاوش	-3070
▁کنار	-3071
▁کھیت	-3072
▁گمان	-3073
▁گھون	-3074
▁آستاں	-3075
▁آشکار	-3076
▁اشارہ	-3077
▁انگشت	-3078
▁اوقات	-3079
▁برہمن	-3080
▁بہاری	-3081
▁بیزار	-3082
▁تسخیر	-3083
▁حیران	-3084
▁خاشاک	-3085
▁رسائی	-3086
▁روانی	-3087
▁روداد	-3088
▁رکھتی	-3089
▁زبانی	-3090
▁ساقیا	-3091
▁سرشار	-3092
▁سلسلہ	-3093
▁سمجھو	-3094
▁سنائی	-3095
▁سنوار	-3096
▁سیلاب	-3097
▁فاصلہ	-3098
▁فراغت	-3099
▁فشانی	-3100
▁قدموں	-3101
▁لفظوں	-3102
▁محسوس	-3103
▁مراسم	-3104
▁معشوق	-3105
▁معمور	-3106
▁منسوب	-3107
▁نادان	-3108
▁نکلیں	-3109
▁واقعہ	-3110
▁پرانے	-3111
▁پرستی	-3112
▁پچھتا	-3113
▁پیمان	-3114
▁چاہیں	-3115
▁چہروں	-3116
▁گزرتا	-3117
▁اعتماد	-3118
▁امتیاز	-3119
▁امیدیں	-3120
▁بہاروں	-3121
▁بیگانے	-3122
▁خریدار	-3123
▁دکھائے	-3124
▁رقیبوں	-3125
▁شرمندہ	-3126
▁پیراہن	-3127
▁چھپائے	-3128
▁کھینچا	-3129
▁انگڑائی	-3130
▁دیواروں	-3131
▁پارسائی	-3132
حق	-3133
خا	-3134
خل	-3135
دن	-3136
رر	-3137
طق	-3138
عہ	-3139
نش	-3140
وٹ	-3141
پس	-3142
کن	-3143
ارۂ	-3144
تھی	-3145
حبا	-3146
راف	-3147
راک	-3148
ردہ	-3149
ریز	-3150
صیر	-3151
ماس	-3152
وبا	-3153
ولی	-3154
کشی	-3155
گوں	-3156
گیں	-3157
ھیے	-3158
یدر	-3159
یرا	-3160
▁حب	-3161
▁سح	-3162
▁عص	-3163
▁غز	-3164
▁مخ	-3165
▁مغ	-3166
▁مڑ	-3167
▁ٹی	-3168
▁پے	-3169
▁چب	-3170
▁چن	-3171
▁یگ	-3172
رائی	-3173
نداں	-3174
نہار	-3175
▁ابد	-3176
▁ادھ	-3177
▁اوج	-3178
▁بہہ	-3179
▁جھپ	-3180
▁حکا	-3181
▁حیف	-3182
▁خطر	-3183
▁خلد	-3184
▁دبا	-3185
▁ربا	-3186
▁ردا	-3187
▁رسا	-3188
▁روی	-3189
▁ریش	-3190
▁زاد	-3191
▁زلی	-3192
▁سرخ	-3193
▁سلگ	-3194
▁سوگ	-3195
▁شغل	-3196
▁عرف	-3197
▁عرق	-3198
▁عند	-3199
▁غور	-3200
▁فرش	-3201
▁فری	-3202
▁قاب	-3203
▁لوح	-3204
▁لہر	-3205
▁مکت	-3206
▁مکھ	-3207
▁میز	-3208
▁نسخ	-3209
▁نشی	-3210
▁واب	-3211
▁وقف	-3212
▁ووں	-3213
▁ٹھن	-3214
▁پیے	-3215
▁چوم	-3216
▁چھت	-3217
▁کاف	-3218
▁کنج	-3219
▁کٹے	-3220
▁گلو	-3221
▁ہما	-3222
اندگی	-3223
انیاں	-3224
▁آفاق	-3225
▁استخ	-3226
▁اچھل	-3227
▁بتلا	-3228
▁بزرگ	-3229
▁بندی	-3230
▁بھلی	-3231
▁بھیڑ	-3232
▁بہتا	-3233
▁بہتے	-3234
▁بیان	-3235
▁تارے	-3236
▁تعجب	-3237
▁توقع	-3238
▁توڑا	-3239
▁تھام	-3240
▁جتنی	-3241
▁جلتا	-3242
▁جھوم	-3243
▁حاجت	-3244
▁حواد	-3245
▁حواس	-3246
▁حوصل	-3247
▁حیدر	-3248
▁خستہ	-3249
▁خطرے	-3250
▁خیمے	-3251
▁دائم	-3252
▁دوزخ	-3253
▁دھرا	-3254
▁دہلی	-3255
▁رفیق	-3256
▁رہرو	-3257
▁زوال	-3258
▁سایا	-3259
▁سبزۂ	-3260
▁سننے	-3261
▁سوتے	-3262
▁سپرد	-3263
▁شورش	-3264
▁شکیب	-3265
▁شگفت	-3266
▁صہبا	-3267
▁طریق	-3268
▁طوطی	-3269
▁عاجز	-3270
▁عباد	-3271
▁عرصۂ	-3272
▁عقدۂ	-3273
▁غمزہ	-3274
▁غنچے	-3275
▁لہجے	-3276
▁محیط	-3277
▁مدعی	-3278
▁مقدم	-3279
▁مندر	-3280
▁موجۂ	-3281
▁موسی	-3282
▁نکتہ	-3283
▁وارد	-3284
▁ٹوٹی	-3285
▁پارہ	-3286
▁پھوڑ	-3287
▁پیتے	-3288
▁پیشہ	-3289
▁کلفت	-3290
▁کوتا	-3291
▁گرفت	-3292
▁آرائش	-3293
▁آستیں	-3294
▁اترتا	-3295
▁ادائے	-3296
▁ارادہ	-3297
▁ارماں	-3298
▁اسیری	-3299
▁الفاظ	-3300
▁اکیلے	-3301
▁باندھ	-3302
▁برہنہ	-3303
▁بھولی	-3304
▁بھیجی	-3305
▁بہانہ	-3306
▁تاریک	-3307
▁تعبیر	-3308
▁تقریر	-3309
▁جاوید	-3310
▁جلائے	-3311
▁جولاں	-3312
▁درواز	-3313
▁دلبری	-3314
▁دنداں	-3315
▁دھوکے	-3316
▁راہوں	-3317
▁رہائی	-3318
▁زلفیں	-3319
▁سوائے	-3320
▁سوختہ	-3321
▁شرارت	-3322
▁صفائی	-3323
▁عنوان	-3324
▁فائدہ	-3325
▁فردوس	-3326
▁فسانے	-3327
▁مرحبا	-3328
▁مصروف	-3329
▁مہمان	-3330
▁ناچار	-3331
▁نکالے	-3332
▁پائیں	-3333
▁پرستش	-3334
▁پکارے	-3335
▁پیاری	-3336
▁پیاسے	-3337
▁پیشتر	-3338
▁پیماں	-3339
▁کانوں	-3340
▁کیجئے	-3341
▁گزرنے	-3342
▁گھروں	-3343
▁یاراں	-3344
▁افسانے	-3345
▁اٹھانے	-3346
▁باغباں	-3347
▁بانہوں	-3348
▁بھروسا	-3349
▁جھونکا	-3350
▁حسینوں	-3351
▁دریائے	-3352
▁زمینوں	-3353
▁سیکڑوں	-3354
▁فرشتوں	-3355
▁لگائیں	-3356
▁محرومی	-3357
▁مصحفیؔ	-3358
▁منزلیں	-3359
▁پہچانے	-3360
▁کھینچے	-3361
▁کیونکہ	-3362
▁آندھیوں	-3363
▁انگلیاں	-3364
▁تماشائی	-3365
▁خاکساری	-3366
▁خواہشوں	-3367
▁اندھیروں	-3368
شد	-3369
شہ	-3370
طل	-3371
مے	-3372
گے	-3373
ہو	-3374
ازم	-3375
الت	-3376
الہ	-3377
انت	-3378
اکت	-3379
بیح	-3380
تاد	-3381
ختی	-3382
دود	-3383
ستۂ	-3384
صیل	-3385
طنت	-3386
فاک	-3387
نور	-3388
نیں	-3389
وسی	-3390
وفی	-3391
ڑکی	-3392
کنے	-3393
ہیز	-3394
یسا	-3395
▁آد	-3396
▁خد	-3397
▁رے	-3398
▁سط	-3399
▁شش	-3400
▁وے	-3401
▁ہٹ	-3402
▁یو	-3403
رافت	-3404
زائے	-3405
واری	-3406
وانی	-3407
کاری	-3408
یانی	-3409
▁آسا	-3410
▁اجڑ	-3411
▁امن	-3412
▁اڑے	-3413
▁باش	-3414
▁برف	-3415
▁بسی	-3416
▁بلک	-3417
▁بور	-3418
▁بچے	-3419
▁تہہ	-3420
▁جال	-3421
▁جاہ	-3422
▁جرا	-3423
▁جزا	-3424
▁جنا	-3425
▁دوپ	-3426
▁رمز	-3427
▁روم	-3428
▁روپ	-3429
▁ریا	-3430
▁زنگ	-3431
▁سات	-3432
▁سلا	-3433
▁سمٹ	-3434
▁صحن	-3435
▁صفت	-3436
▁صند	-3437
▁طوق	-3438
▁عزم	-3439
▁فدا	-3440
▁فزا	-3441
▁لبی	-3442
▁لپٹ	-3443
▁لڑک	-3444
▁ماج	-3445
▁مصر	-3446
▁معا	-3447
▁مول	-3448
▁میل	-3449
▁نرا	-3450
▁نزع	-3451
▁نمی	-3452
▁نوک	-3453
▁نیل	-3454
▁ٹھی	-3455
▁چھڑ	-3456
▁چیخ	-3457
▁کنع	-3458
▁کیں	-3459
▁گرے	-3460
▁گھو	-3461
▁ہمہ	-3462
▁آئنے	-3463
▁آئیے	-3464
▁اتار	-3465
▁امام	-3466
▁اماں	-3467
▁باسی	-3468
▁بانٹ	-3469
▁بخشش	-3470
▁بخشے	-3471
▁بدلی	-3472
▁بندے	-3473
▁بٹھا	-3474
▁بچپن	-3475
▁بچھا	-3476
▁بھگو	-3477
▁بیتے	-3478
▁بیدل	-3479
▁بینی	-3480
▁توبہ	-3481
▁تپاک	-3482
▁تھکن	-3483
▁تیار	-3484
▁تیرہ	-3485
▁جاود	-3486
▁جاگے	-3487
▁جلتی	-3488
▁جوئی	-3489
▁جھلم	-3490
▁حریم	-3491
▁حلقے	-3492
▁حکمت	-3493
▁خاکی	-3494
▁خبری	-3495
▁دستک	-3496
▁دکھے	-3497
▁روکے	-3498
▁زمزم	-3499
▁سرشک	-3500
▁سرما	-3501
▁سفاک	-3502
▁شانے	-3503
▁شعار	-3504
▁صفات	-3505
▁صوفی	-3506
▁طاعت	-3507
▁طرفہ	-3508
▁فانی	-3509
▁فرنگ	-3510
▁فشاں	-3511
▁قابو	-3512
▁قمری	-3513
▁لاتا	-3514
▁لازم	-3515
▁لکھے	-3516
▁مجمع	-3517
▁محمل	-3518
▁مدام	-3519
▁مردم	-3520
▁مصور	-3521
▁مطرب	-3522
▁مقصد	-3523
▁مولا	-3524
▁مٹھی	-3525
▁مکرر	-3526
▁مکیں	-3527
▁نغمۂ	-3528
▁نغمے	-3529
▁نقشہ	-3530
▁نوحہ	-3531
▁نوید	-3532
▁واقف	-3533
▁واپس	-3534
▁پتوں	-3535
▁پناہ	-3536
▁پڑتی	-3537
▁پڑتے	-3538
▁پہاڑ	-3539
▁چرچا	-3540
▁چلیں	-3541
▁چمکا	-3542
▁چھری	-3543
▁کاٹے	-3544
▁کاکل	-3545
▁کباب	-3546
▁کردہ	-3547
▁کشتۂ	-3548
▁کعبے	-3549
▁کماں	-3550
▁کمرے	-3551
▁گاہے	-3552
▁گریۂ	-3553
▁گشتہ	-3554
▁گلوں	-3555
▁گواہ	-3556
▁ہلاک	-3557
▁یکسر	-3558
▁اشارا	-3559
▁افشاں	-3560
▁التجا	-3561
▁انصاف	-3562
▁اپنوں	-3563
▁بالیں	-3564
▁بتاتے	-3565
▁بدلنے	-3566
▁برائی	-3567
▁بلائے	-3568
▁بلندی	-3569
▁بندوں	-3570
▁بھنور	-3571
▁بھولا	-3572
▁تسبیح	-3573
▁جھوٹا	-3574
▁جھگڑا	-3575
▁حوصلے	-3576
▁حکایت	-3577
▁خدایا	-3578
▁خواری	-3579
▁دامان	-3580
▁داماں	-3581
▁درباں	-3582
▁درویش	-3583
▁دستار	-3584
▁ربائی	-3585
▁رشتوں	-3586
▁روئیں	-3587
▁رکھنے	-3588
▁زلیخا	-3589
▁سامنا	-3590
▁ستائش	-3591
▁سرگرم	-3592
▁سلطنت	-3593
▁سوئیں	-3594
▁سیاہی	-3595
▁سیماب	-3596
▁شرافت	-3597
▁عبادت	-3598
▁عنواں	-3599
▁غمگیں	-3600
▁فسانا	-3601
▁لگانا	-3602
▁لگانے	-3603
▁معانی	-3604
▁میداں	-3605
▁ناخدا	-3606
▁نزاکت	-3607
▁نشیمن	-3608
▁نظروں	-3609
▁نہایت	-3610
▁ولولے	-3611
▁ویران	-3612
▁پابند	-3613
▁پرانا	-3614
▁پرانی	-3615
▁پرہیز	-3616
▁پھینک	-3617
▁چاہنے	-3618
▁چھوڑے	-3619
▁کشادہ	-3620
▁کنارہ	-3621
▁کھائے	-3622
▁کھانے	-3623
▁کھویا	-3624
▁کیمیا	-3625
▁ہنسنے	-3626
▁اندیشہ	-3627
▁اٹھائی	-3628
▁بستیاں	-3629
▁بھیگتا	-3630
▁تمنائے	-3631
▁خرابات	-3632
▁خودکشی	-3633
▁خیالوں	-3634
▁دشمنوں	-3635
▁دکھاتی	-3636
▁سانسوں	-3637
▁شبستاں	-3638
▁شوریدہ	-3639
▁عندلیب	-3640
▁مہربان	-3641
▁ناتواں	-3642
▁نادانی	-3643
▁ناگہاں	-3644
▁ویرانہ	-3645
▁پوچھوں	-3646
▁پیمانے	-3647
▁کتابوں	-3648
▁ہوشیار	-3649
▁افسردگی	-3650
▁اٹھائیے	-3651
▁بیگانگی	-3652
▁تماشائے	-3653
▁سمندروں	-3654
▁فرمائیے	-3655
▁مسیحائی	-3656
▁گرفتاری	-3657
ئق	-3658
ئم	-3659
بد	-3660
تھ	-3661
حد	-3662
دت	-3663
رس	-3664
سۂ	-3665
شا	-3666
فع	-3667
قل	-3668
قو	-3669
مد	-3670
مہ	-3671
نس	-3672
پی	-3673
چی	-3674
کت	-3675
گن	-3676
یف	-3677
ائب	-3678
ابا	-3679
اوت	-3680
اکم	-3681
جھی	-3682
دور	-3683
رسی	-3684
زوں	-3685
ستئ	-3686
فیت	-3687
قوب	-3688
لسل	-3689
لوب	-3690
لیل	-3691
ناک	-3692
واہ	-3693
وبے	-3694
ومت	-3695
چوں	-3696
ڑھے	-3697
گیز	-3698
ھلی	-3699
یات	-3700
▁تف	-3701
▁طن	-3702
▁عظ	-3703
▁وش	-3704
▁چہ	-3705
▁کڑ	-3706
الیں	-3707
بوری	-3708
راتا	-3709
مرود	-3710
نائے	-3711
وائے	-3712
گاری	-3713
یازہ	-3714
▁آنچ	-3715
▁ارد	-3716
▁ارے	-3717
▁افر	-3718
▁انس	-3719
▁اکس	-3720
▁اگل	-3721
▁باک	-3722
▁بدر	-3723
▁بدم	-3724
▁بغل	-3725
▁بکف	-3726
▁بھڑ	-3727
▁بیش	-3728
▁تھو	-3729
▁جلد	-3730
▁جھن	-3731
▁جہت	-3732
▁خشت	-3733
▁دبے	-3734
▁دھن	-3735
▁رام	-3736
▁راگ	-3737
▁رسن	-3738
▁روگ	-3739
▁رکے	-3740
▁زعم	-3741
▁زود	-3742
▁زہد	-3743
▁سبق	-3744
▁سدھ	-3745
▁سلط	-3746
▁سمی	-3747
▁سہم	-3748
▁شفق	-3749
▁صدق	-3750
▁صدم	-3751
▁صدی	-3752
▁عجم	-3753
▁غری	-3754
▁فار	-3755
▁فتح	-3756
▁فرز	-3757
▁قرآ	-3758
▁قمر	-3759
▁قوت	-3760
▁قوم	-3761
▁لحد	-3762
▁محل	-3763
▁مدا	-3764
▁مدح	-3765
▁مدد	-3766
▁مفل	-3767
▁مہی	-3768
▁ناپ	-3769
▁نبھ	-3770
▁نخل	-3771
▁نیت	-3772
▁وصف	-3773
▁پتے	-3774
▁پیو	-3775
▁چلن	-3776
▁چٹک	-3777
▁چڑھ	-3778
▁چھل	-3779
▁کال	-3780
▁کجا	-3781
▁کدۂ	-3782
▁کود	-3783
▁کھٹ	-3784
▁ہلا	-3785
تھیلی	-3786
▁آئین	-3787
▁آبگی	-3788
▁آرسی	-3789
▁آہیں	-3790
▁اخلا	-3791
▁استع	-3792
▁استغ	-3793
▁امیر	-3794
▁اونچ	-3795
▁اوڑھ	-3796
▁اڑتی	-3797
▁اڑتے	-3798
▁اڑنے	-3799
▁اگلے	-3800
▁باطل	-3801
▁باطن	-3802
▁بالا	-3803
▁بخشی	-3804
▁برسا	-3805
▁بندۂ	-3806
▁بوسۂ	-3807
▁بولا	-3808
▁بچئے	-3809
▁بگڑی	-3810
▁بھڑک	-3811
▁بھیس	-3812
▁تئیں	-3813
▁تجھی	-3814
▁تڑپا	-3815
▁تیور	-3816
▁جامۂ	-3817
▁جلدی	-3818
▁جلنے	-3819
▁جگنو	-3820
▁جیتا	-3821
▁حاکم	-3822
▁خامۂ	-3823
▁خراش	-3824
▁خطاب	-3825
▁خلقت	-3826
▁خموش	-3827
▁درجہ	-3828
▁دروں	-3829
▁دریغ	-3830
▁دوام	-3831
▁دکان	-3832
▁دکاں	-3833
▁دھنک	-3834
▁زاری	-3835
▁زخمی	-3836
▁سائل	-3837
▁سانپ	-3838
▁سحری	-3839
▁سختی	-3840
▁سروں	-3841
▁سلوک	-3842
▁سننا	-3843
▁سوئی	-3844
▁سوار	-3845
▁شکوے	-3846
▁صندل	-3847
▁طلبی	-3848
▁ظہور	-3849
▁عقبی	-3850
▁عناں	-3851
▁عیاں	-3852
▁غزال	-3853
▁قالب	-3854
▁قلزم	-3855
▁لکھو	-3856
▁لہجہ	-3857
▁لیتی	-3858
▁مانے	-3859
▁مجسم	-3860
▁محتا	-3861
▁مسرت	-3862
▁مسکر	-3863
▁مشرب	-3864
▁مشیت	-3865
▁مطلق	-3866
▁مغاں	-3867
▁منکر	-3868
▁منیں	-3869
▁مہکی	-3870
▁مہکے	-3871
▁ندیم	-3872
▁نکھر	-3873
▁نگری	-3874
▁والی	-3875
▁وفاد	-3876
▁ویسا	-3877
▁پارۂ	-3878
▁پنبہ	-3879
▁پوری	-3880
▁پڑھا	-3881
▁پینے	-3882
▁چڑھا	-3883
▁کانپ	-3884
▁کلاہ	-3885
▁کلیم	-3886
▁کوچہ	-3887
▁کٹھن	-3888
▁کھود	-3889
▁کھٹک	-3890
▁کہیو	-3891
▁گرتے	-3892
▁گریز	-3893
▁گسار	-3894
▁گوئی	-3895
▁گہرے	-3896
▁ہلال	-3897
▁ہونٹ	-3898
▁آتشیں	-3899
▁آسانی	-3900
▁استاد	-3901
▁الجھا	-3902
▁امکاں	-3903
▁اندوہ	-3904
▁انگیز	-3905
▁بجائے	-3906
▁بغاوت	-3907
▁بنانے	-3908
▁بوریا	-3909
▁بولتا	-3910
▁بچھڑے	-3911
▁تاخیر	-3912
▁تقریب	-3913
▁جانئے	-3914
▁جاگتا	-3915
▁جراحت	-3916
▁جواہر	-3917
▁حکومت	-3918
▁حیدرؔ	-3919
▁حیواں	-3920
▁خانوں	-3921
▁خونیں	-3922
▁درپیش	-3923
▁دوستو	-3924
▁دھرتی	-3925
▁دھیرے	-3926
▁دہائی	-3927
▁رنجور	-3928
▁زلفاں	-3929
▁سجانے	-3930
▁سراسر	-3931
▁سرکار	-3932
▁سنائے	-3933
▁سواری	-3934
▁سوچوں	-3935
▁سکندر	-3936
▁سہارے	-3937
▁سیکھا	-3938
▁شاخوں	-3939
▁شرمند	-3940
▁شعلوں	-3941
▁شمعیں	-3942
▁شیفتہ	-3943
▁عافیت	-3944
▁عربدہ	-3945
▁فاصلے	-3946
▁قلندر	-3947
▁لائیں	-3948
▁لبریز	-3949
▁لکھتا	-3950
▁لکھتے	-3951
▁ماتھے	-3952
▁ماجرا	-3953
▁مانوس	-3954
▁محابا	-3955
▁مسلسل	-3956
▁مغرور	-3957
▁مہماں	-3958
▁میکدے	-3959
▁نارسا	-3960
▁ناموس	-3961
▁ندامت	-3962
▁نمرود	-3963
▁نوائی	-3964
▁نکلنے	-3965
▁نہانی	-3966
▁پرندے	-3967
▁پرچھا	-3968
▁پلکیں	-3969
▁پچھلے	-3970
▁پھونک	-3971
▁پیالہ	-3972
▁پیروں	-3973
▁پیڑوں	-3974
▁چاہوں	-3975
▁چمکتی	-3976
▁چڑھتے	-3977
▁چھائی	-3978
▁چھوٹا	-3979
▁چھوڑی	-3980
▁کوسوں	-3981
▁کھوئے	-3982
▁کھوتی	-3983
▁کھولی	-3984
▁کھولے	-3985
▁کھونے	-3986
▁کھڑکی	-3987
▁گزرتے	-3988
▁گزریں	-3989
▁گلابی	-3990
▁گنگنا	-3991
▁گھونٹ	-3992
▁یاران	-3993
▁یعقوب	-3994
▁آرزوئے	-3995
▁آزمانے	-3996
▁آسمانی	-3997
▁اجزائے	-3998
▁اٹھاتے	-3999
▁اٹھانا	-4000
▁بتائیں	-4001
▁بلائیں	-4002
▁بکھرنے	-4003
▁بیماری	-4004
▁بینائی	-4005
▁بیگانۂ	-4006
▁جفائیں	-4007
▁خمیازہ	-4008
▁دروازے	-4009
▁دکھاتا	-4010
▁دکھانے	-4011
▁دھڑکتا	-4012
▁رازداں	-4013
▁راستوں	-4014
▁رعنائی	-4015
▁سانسیں	-4016
▁سمجھنے	-4017
▁سنائیں	-4018
▁سودائے	-4019
▁صحرائے	-4020
▁صدائیں	-4021
▁فروزاں	-4022
▁قربتیں	-4023
▁ماہتاب	-4024
▁مینائے	-4025
▁ناتمام	-4026
▁نازنیں	-4027
▁نمایاں	-4028
▁نومیدی	-4029
▁واردات	-4030
▁وسعتیں	-4031
▁ویرانے	-4032
▁پتھروں	-4033
▁پوچھنے	-4034
▁پوچھیں	-4035
▁پیشانی	-4036
▁کھولتے	-4037
▁گریبان	-4038
▁گستاخی	-4039
▁گناہوں	-4040
▁ہتھیلی	-4041
▁ہنگامۂ	-4042
▁یادگار	-4043
▁استخواں	-4044
▁اندھیرا	-4045
▁خوابیدہ	-4046
▁دکھائیں	-4047
▁شادمانی	-4048
▁کھینچتا	-4049
▁گھٹائیں	-4050
ئن	-4051
اظ	-4052
با	-4053
دل	-4054
سپ	-4055
صی	-4056
طہ	-4057
طۂ	-4058
غز	-4059
ٹھ	-4060
کو	-4061
ادی	-4062
اسی	-4063
الو	-4064
انع	-4065
اہل	-4066
بیں	-4067
حاں	-4068
ختن	-4069
خود	-4070
زیں	-4071
شاہ	-4072
فوظ	-4073
قوف	-4074
قیق	-4075
لاط	-4076
مئن	-4077
میل	-4078
وبی	-4079
پاس	-4080
چسپ	-4081
کتے	-4082
کوں	-4083
گاف	-4084
ھلا	-4085
ھلے	-4086
ہقہ	-4087
یسر	-4088
▁آں	-4089
▁بع	-4090
▁تت	-4091
▁حم	-4092
▁عم	-4093
▁فو	-4094
▁مز	-4095
▁مچ	-4096
▁پج	-4097
▁چٹ	-4098
▁چک	-4099
ارات	-4100
امات	-4101
بارت	-4102
خشاں	-4103
دگاں	-4104
راتے	-4105
شائے	-4106
شاہی	-4107
صورت	-4108
عتوں	-4109
علان	-4110
ندوں	-4111
نگوں	-4112
وبتے	-4113
وبنے	-4114
وجود	-4115
▁آدھ	-4116
▁الو	-4117
▁امل	-4118
▁اگا	-4119
▁بشک	-4120
▁بنو	-4121
▁بچہ	-4122
▁بگو	-4123
▁بیب	-4124
▁تعز	-4125
▁تھر	-4126
▁تین	-4127
▁جاے	-4128
▁جزو	-4129
▁جگم	-4130
▁جھا	-4131
▁جھج	-4132
▁جھر	-4133
▁خاں	-4134
▁خلا	-4135
▁خلل	-4136
▁داں	-4137
▁دخل	-4138
▁دہق	-4139
▁رخی	-4140
▁رست	-4141
▁رکی	-4142
▁رہز	-4143
▁زہے	-4144
▁سبو	-4145
▁سپر	-4146
▁سہہ	-4147
▁شہہ	-4148
▁صدف	-4149
▁طرۂ	-4150
▁طعن	-4151
▁طنز	-4152
▁عطر	-4153
▁فسر	-4154
▁فقر	-4155
▁فلس	-4156
▁قصد	-4157
▁قصر	-4158
▁قصۂ	-4159
▁لاگ	-4160
▁لغز	-4161
▁لگن	-4162
▁محک	-4163
▁مدف	-4164
▁معج	-4165
▁مٹے	-4166
▁نخچ	-4167
▁ندا	-4168
▁نیش	-4169
▁ٹان	-4170
▁پکڑ	-4171
▁پھل	-4172
▁پہا	-4173
▁چیں	-4174
▁کڑی	-4175
▁کہن	-4176
▁گال	-4177
▁گھی	-4178
▁ہرن	-4179
▁ہیچ	-4180
▁آدھی	-4181
▁آگاہ	-4182
▁اترے	-4183
▁اختر	-4184
▁اخیر	-4185
▁افتا	-4186
▁انہی	-4187
▁ایما	-4188
▁باہم	-4189
▁بلکہ	-4190
▁بوسے	-4191
▁بھلے	-4192
▁بیکر	-4193
▁تربت	-4194
▁تلخی	-4195
▁تنگئ	-4196
▁تنگی	-4197
▁جایا	-4198
▁حائل	-4199
▁خارا	-4200
▁خالق	-4201
▁دادہ	-4202
▁دارا	-4203
▁دعوا	-4204
▁دیگر	-4205
▁رائے	-4206
▁رانی	-4207
▁رہین	-4208
▁ریزۂ	-4209
▁ریشہ	-4210
▁سازی	-4211
▁سبحہ	-4212
▁ستاں	-4213
▁سجدے	-4214
▁سرخی	-4215
▁سناں	-4216
▁سنوں	-4217
▁سویا	-4218
▁سیکھ	-4219
▁شامت	-4220
▁شوخئ	-4221
▁شیوہ	-4222
▁صفحۂ	-4223
▁عارف	-4224
▁عالی	-4225
▁عروس	-4226
▁عظمت	-4227
▁عیار	-4228
▁غموں	-4229
▁فارغ	-4230
▁فسون	-4231
▁فگار	-4232
▁قبلہ	-4233
▁قبلۂ	-4234
▁قطرے	-4235
▁قہقہ	-4236
▁لائق	-4237
▁لاتے	-4238
▁لاوے	-4239
▁لحاظ	-4240
▁لمبی	-4241
▁لکیر	-4242
▁مغرب	-4243
▁ملیے	-4244
▁مندی	-4245
▁منطق	-4246
▁مٹنے	-4247
▁مکتب	-4248
▁نادم	-4249
▁نامۂ	-4250
▁نامی	-4251
▁نسخہ	-4252
▁نظام	-4253
▁نوبت	-4254
▁نیکی	-4255
▁ٹھیک	-4256
▁پائم	-4257
▁پھین	-4258
▁چھوٹ	-4259
▁چھٹا	-4260
▁کائی	-4261
▁کانچ	-4262
▁کراں	-4263
▁کشاں	-4264
▁کمان	-4265
▁کمیں	-4266
▁کٹتی	-4267
▁کہلا	-4268
▁گرمئ	-4269
▁گروں	-4270
▁گنبد	-4271
▁گنتی	-4272
▁گھوم	-4273
▁ہارے	-4274
▁ہستئ	-4275
▁آزردہ	-4276
▁آلودہ	-4277
▁آمادہ	-4278
▁احرام	-4279
▁ادراک	-4280
▁ارادے	-4281
▁ارزاں	-4282
▁اعلان	-4283
▁انجان	-4284
▁انگلی	-4285
▁اوراق	-4286
▁اکسیر	-4287
▁برکھا	-4288
▁بولیں	-4289
▁بچاتے	-4290
▁بڑھتے	-4291
▁بگڑتا	-4292
▁بھاگے	-4293
▁بیکار	-4294
▁تجربہ	-4295
▁تعریف	-4296
▁تقصیر	-4297
▁تمکیں	-4298
▁تکمیل	-4299
▁جلاتے	-4300
▁جلانا	-4301
▁جلایا	-4302
▁جمعیت	-4303
▁حوصلۂ	-4304
▁خزانہ	-4305
▁خوانی	-4306
▁دربار	-4307
▁دریچے	-4308
▁دسترس	-4309
▁دلچسپ	-4310
▁دھڑکن	-4311
▁دہلیز	-4312
▁راہیں	-4313
▁رندان	-4314
▁رنداں	-4315
▁رکھیں	-4316
▁زیارت	-4317
▁سریجن	-4318
▁سفینہ	-4319
▁سنسان	-4320
▁سوزاں	-4321
▁سوچیں	-4322
▁سیدھی	-4323
▁شاداب	-4324
▁شرابی	-4325
▁شہروں	-4326
▁صداقت	-4327
▁عبارت	-4328
▁عرفاں	-4329
▁فراہم	-4330
▁فریبی	-4331
▁فسانۂ	-4332
▁لرزاں	-4333
▁لڑائی	-4334
▁لگایا	-4335
▁مانتا	-4336
▁مانگا	-4337
▁محدود	-4338
▁محفوظ	-4339
▁مرحلہ	-4340
▁مسافت	-4341
▁مطمئن	-4342
▁مقتول	-4343
▁موقوف	-4344
▁میدان	-4345
▁ناسزا	-4346
▁نشانہ	-4347
▁نظارۂ	-4348
▁نظارے	-4349
▁نوازی	-4350
▁وفائے	-4351
▁پندار	-4352
▁پھیلا	-4353
▁پہنچی	-4354
▁پیاسی	-4355
▁پیوند	-4356
▁پیکان	-4357
▁چمکتا	-4358
▁چھاتی	-4359
▁چھوٹے	-4360
▁کربلا	-4361
▁کردار	-4362
▁کرشمے	-4363
▁کلیسا	-4364
▁کنارے	-4365
▁کنعاں	-4366
▁کھاتے	-4367
▁کھلتی	-4368
▁کھلنے	-4369
▁کھٹکا	-4370
▁کہسار	-4371
▁گزارے	-4372
▁گزرنا	-4373
▁گستاخ	-4374
▁گلچیں	-4375
▁آشنائے	-4376
▁آشیانہ	-4377
▁احتیاج	-4378
▁ادھورا	-4379
▁استوار	-4380
▁افسانۂ	-4381
▁افشانی	-4382
▁اندھیر	-4383
▁اندیشۂ	-4384
▁باوجود	-4385
▁بستیوں	-4386
▁بھلانے	-4387
▁بھولیں	-4388
▁بہاراں	-4389
▁بیابان	-4390
▁بیداری	-4391
▁بیٹھنا	-4392
▁بیٹھیں	-4393
▁تاریکی	-4394
▁حجابوں	-4395
▁خداوند	-4396
▁خواہاں	-4397
▁خوشیوں	-4398
▁دنیائے	-4399
▁رفتگاں	-4400
▁سنوارے	-4401
▁سودائی	-4402
▁سپردگی	-4403
▁شرمسار	-4404
▁مجبوری	-4405
▁محفلیں	-4406
▁منزلوں	-4407
▁موسموں	-4408
▁ناصبور	-4409
▁ناکامی	-4410
▁نشینوں	-4411
▁نیستاں	-4412
▁وابستہ	-4413
▁ٹھکانہ	-4414
▁پوچھئے	-4415
▁پہچانا	-4416
▁چنگاری	-4417
▁چھوڑیں	-4418
▁چھپانا	-4419
▁کتابیں	-4420
▁کرامات	-4421
▁کوتاہی	-4422
▁گرمیاں	-4423
▁انکھیاں	-4424
▁اٹھائیں	-4425
▁خوبصورت	-4426
▁خودداری	-4427
▁دیواریں	-4428
▁سنبھالے	-4429
▁شناسائی	-4430
▁ناامیدی	-4431
▁ناتوانی	-4432
▁ویرانوں	-4433
▁ٹھوکریں	-4434
▁کہانیاں	-4435
▁واماندگی	-4436
بن	-4437
تن	-4438
رۂ	-4439
زۂ	-4440
سہ	-4441
عۂ	-4442
قب	-4443
لع	-4444
وح	-4445
کز	-4446
ھب	-4447
ھم	-4448
ادۂ	-4449
باز	-4450
برد	-4451
تون	-4452
جھل	-4453
جیے	-4454
دال	-4455
دید	-4456
راج	-4457
رصر	-4458
ریل	-4459
شتی	-4460
صار	-4461
عام	-4462
عون	-4463
فام	-4464
قوت	-4465
لیک	-4466
لیں	-4467
مون	-4468
ندھ	-4469
نعت	-4470
نچل	-4471
نیے	-4472
ورے	-4473
وسہ	-4474
وہش	-4475
ویش	-4476
چھی	-4477
ڑھی	-4478
کرۂ	-4479
گاہ	-4480
گری	-4481
گیر	-4482
ھار	-4483
ھرا	-4484
ھوں	-4485
ہری	-4486
ہوں	-4487
یزہ	-4488
یلی	-4489
ینہ	-4490
▁بم	-4491
▁رف	-4492
▁زح	-4493
▁زل	-4494
▁زک	-4495
▁زہ	-4496
▁سع	-4497
▁عط	-4498
▁غص	-4499
▁غو	-4500
▁مظ	-4501
▁کد	-4502
▁کپ	-4503
ابوں	-4504
جائی	-4505
جروح	-4506
خواہ	-4507
دمند	-4508
صلوں	-4509
فتگی	-4510
فراز	-4511
فریں	-4512
لیکن	-4513
منون	-4514
ناعت	-4515
وبتا	-4516
وروں	-4517
کسزم	-4518
کھڑی	-4519
▁آٹھ	-4520
▁آپس	-4521
▁اشت	-4522
▁الف	-4523
▁اوس	-4524
▁اٹک	-4525
▁اپر	-4526
▁اہم	-4527
▁ایر	-4528
▁باپ	-4529
▁بدی	-4530
▁بسے	-4531
▁بہک	-4532
▁بیس	-4533
▁بیل	-4534
▁تخم	-4535
▁ترج	-4536
▁تنک	-4537
▁تھل	-4538
▁تھم	-4539
▁جتا	-4540
▁جمی	-4541
▁جنم	-4542
▁جیا	-4543
▁حبس	-4544
▁حسد	-4545
▁دبی	-4546
▁دفع	-4547
▁رخت	-4548
▁رکا	-4549
▁رہن	-4550
▁زنی	-4551
▁ساں	-4552
▁سرب	-4553
▁سرگ	-4554
▁شمس	-4555
▁شگو	-4556
▁شیط	-4557
▁صحت	-4558
▁صلا	-4559
▁صلے	-4560
▁عاق	-4561
▁غصے	-4562
▁غیب	-4563
▁فات	-4564
▁فاش	-4565
▁فال	-4566
▁فان	-4567
▁قری	-4568
▁قصے	-4569
▁قول	-4570
▁لقا	-4571
▁لٹک	-4572
▁مخم	-4573
▁مسل	-4574
▁مشغ	-4575
▁ملت	-4576
▁نشو	-4577
▁نصی	-4578
▁نعش	-4579
▁نکھ	-4580
▁نہا	-4581
▁وسی	-4582
▁پاد	-4583
▁پہل	-4584
▁چاٹ	-4585
▁چوک	-4586
▁چوں	-4587
▁چپے	-4588
▁کاج	-4589
▁کاو	-4590
▁کبک	-4591
▁کتر	-4592
▁کرد	-4593
▁کنی	-4594
▁کچا	-4595
▁گلد	-4596
▁گنو	-4597
▁گیت	-4598
▁ہرا	-4599
الہوس	-4600
بانوں	-4601
▁آبلے	-4602
▁آخرش	-4603
▁آزرد	-4604
▁آستی	-4605
▁آہنگ	-4606
▁آہوں	-4607
▁اتری	-4608
▁اردو	-4609
▁اصلی	-4610
▁اصول	-4611
▁الٹا	-4612
▁بالش	-4613
▁بجاں	-4614
▁بخیہ	-4615
▁بدست	-4616
▁برسر	-4617
▁بسان	-4618
▁بقدر	-4619
▁بقول	-4620
▁بندھ	-4621
▁بنیں	-4622
▁بگڑے	-4623
▁بھیک	-4624
▁بیتی	-4625
▁بیجا	-4626
▁بینش	-4627
▁ترقی	-4628
▁تنکا	-4629
▁تواں	-4630
▁توسن	-4631
▁جئیں	-4632
▁جبین	-4633
▁جستہ	-4634
▁جلال	-4635
▁جوئے	-4636
▁جویا	-4637
▁جھمک	-4638
▁جھکی	-4639
▁حدود	-4640
▁حریص	-4641
▁حزیں	-4642
▁حفاظ	-4643
▁خراج	-4644
▁خروش	-4645
▁خفتہ	-4646
▁خوئے	-4647
▁داور	-4648
▁درخت	-4649
▁درست	-4650
▁درہم	-4651
▁دستی	-4652
▁دشنہ	-4653
▁دوتا	-4654
▁دوڑے	-4655
▁دھرم	-4656
▁دھوم	-4657
▁دہان	-4658
▁دیجے	-4659
▁ربطی	-4660
▁رتبہ	-4661
▁رستا	-4662
▁روکش	-4663
▁رکھو	-4664
▁رگوں	-4665
▁رہیے	-4666
▁زبوں	-4667
▁زخود	-4668
▁زماں	-4669
▁زمرد	-4670
▁زہرہ	-4671
▁سجدۂ	-4672
▁سرکش	-4673
▁سطوت	-4674
▁سنبل	-4675
▁سنیں	-4676
▁سواد	-4677
▁سوتا	-4678
▁سوزش	-4679
▁سونپ	-4680
▁سوکھ	-4681
▁سپاس	-4682
▁سپنا	-4683
▁سپند	-4684
▁سپنے	-4685
▁سہتے	-4686
▁سہما	-4687
▁سیرت	-4688
▁شاہی	-4689
▁شعور	-4690
▁صافی	-4691
▁صدقے	-4692
▁صرصر	-4693
▁صنعت	-4694
▁طاری	-4695
▁طراز	-4696
▁عروج	-4697
▁عشوہ	-4698
▁عقدہ	-4699
▁عقید	-4700
▁عنبر	-4701
▁عنقا	-4702
▁فراغ	-4703
▁فلاں	-4704
▁لاتی	-4705
▁لالے	-4706
▁لانے	-4707
▁لبھا	-4708
▁لطیف	-4709
▁لغزش	-4710
▁لوٹا	-4711
▁لوٹے	-4712
▁لوہو	-4713
▁لڑکی	-4714
▁لکھی	-4715
▁لگنے	-4716
▁ماہی	-4717
▁مجاز	-4718
▁مجرم	-4719
▁مدفن	-4720
▁مدھم	-4721
▁مرکز	-4722
▁مریم	-4723
▁مشرق	-4724
▁مطلع	-4725
▁ممات	-4726
▁منشا	-4727
▁منصب	-4728
▁منعم	-4729
▁مومن	-4730
▁مٹتا	-4731
▁مکمل	-4732
▁مہری	-4733
▁میسر	-4734
▁میہم	-4735
▁ناحق	-4736
▁نازش	-4737
▁نامے	-4738
▁نبرد	-4739
▁نجوم	-4740
▁نشیب	-4741
▁نظری	-4742
▁نعمت	-4743
▁نورد	-4744
▁نہال	-4745
▁نیام	-4746
▁وحدت	-4747
▁وفور	-4748
▁ٹپکا	-4749
▁ٹپکے	-4750
▁ٹکرا	-4751
▁ٹھان	-4752
▁پانا	-4753
▁پانو	-4754
▁پانے	-4755
▁پختہ	-4756
▁پراف	-4757
▁پرزے	-4758
▁پھوٹ	-4759
▁پھٹی	-4760
▁پہرے	-4761
▁پہلا	-4762
▁پیلے	-4763
▁چتون	-4764
▁چلمن	-4765
▁چنچل	-4766
▁چپکے	-4767
▁چھان	-4768
▁چھپے	-4769
▁چہرۂ	-4770
▁کاسۂ	-4771
▁کاہے	-4772
▁کدوں	-4773
▁کریم	-4774
▁کشاد	-4775
▁کشور	-4776
▁کشوں	-4777
▁کھڑی	-4778
▁گوشہ	-4779
▁گوشے	-4780
▁گھنے	-4781
▁گہرا	-4782
▁ہمسا	-4783
▁ہیرے	-4784
▁یاری	-4785
▁آبلوں	-4786
▁آفریں	-4787
▁آوارۂ	-4788
▁آگاہی	-4789
▁آہوئے	-4790
▁اترتی	-4791
▁اجالے	-4792
▁اخلاص	-4793
▁ارشاد	-4794
▁اصرار	-4795
▁افسون	-4796
▁الجھن	-4797
▁الماس	-4798
▁امانت	-4799
▁انعام	-4800
▁اوجھل	-4801
▁اولیں	-4802
▁اونچا	-4803
▁اچھال	-4804
▁اچھوں	-4805
▁اڑائی	-4806
▁اکرام	-4807
▁بتایا	-4808
▁بجھتی	-4809
▁بجھنے	-4810
▁بدلتا	-4811
▁بدلتی	-4812
▁بردار	-4813
▁برہمی	-4814
▁بسانا	-4815
▁بنائی	-4816
▁بنیاد	-4817
▁بڑھتا	-4818
▁بکھری	-4819
▁بھیگی	-4820
▁بہائے	-4821
▁بہلتا	-4822
▁بیباک	-4823
▁بینوں	-4824
▁بیٹھی	-4825
▁تازگی	-4826
▁تجربے	-4827
▁تشویش	-4828
▁تعلیم	-4829
▁تماشہ	-4830
▁تمکین	-4831
▁تڑپتا	-4832
▁تھرتھ	-4833
▁جاویں	-4834
▁جاگتے	-4835
▁جاگنے	-4836
▁جبریل	-4837
▁جلانے	-4838
▁جمہور	-4839
▁جنازے	-4840
▁جگائے	-4841
▁جگمگا	-4842
▁جھوٹی	-4843
▁جھوٹے	-4844
▁حجابی	-4845
▁حوریں	-4846
▁خدائے	-4847
▁خرابے	-4848
▁خزانے	-4849
▁داغوں	-4850
▁درازی	-4851
▁درماں	-4852
▁دشنام	-4853
▁دوانے	-4854
▁دوسری	-4855
▁دوسرے	-4856
▁دوپہر	-4857
▁دھارا	-4858
▁دہقاں	-4859
▁راہرو	-4860
▁رلانا	-4861
▁رلایا	-4862
▁رومیؔ	-4863
▁رویاں	-4864
▁زدگاں	-4865
▁زنبور	-4866
▁زندان	-4867
▁زنہار	-4868
▁سانحہ	-4869
▁سانچے	-4870
▁ستائے	-4871
▁ستاتی	-4872
▁سرائے	-4873
▁سلسلے	-4874
▁سلگتے	-4875
▁سلیقے	-4876
▁سناتے	-4877
▁سناٹے	-4878
▁سوچتی	-4879
▁سوچتے	-4880
▁سویرے	-4881
▁سیدھا	-4882
▁سیراب	-4883
▁سینوں	-4884
▁شاخیں	-4885
▁شاہیں	-4886
▁شرطیں	-4887
▁شکاری	-4888
▁شگفتن	-4889
▁شگفتہ	-4890
▁صدیاں	-4891
▁طفلاں	-4892
▁عدالت	-4893
▁عصیاں	-4894
▁عیاری	-4895
▁غلامی	-4896
▁قاروں	-4897
▁قبروں	-4898
▁قناعت	-4899
▁قہقہہ	-4900
▁لکھیں	-4901
▁لگائی	-4902
▁لگاتے	-4903
▁لگاوٹ	-4904
▁مانیں	-4905
▁مجروح	-4906
▁محراب	-4907
▁مداوا	-4908
▁مدتیں	-4909
▁مردمک	-4910
▁مشکیں	-4911
▁معرکہ	-4912
▁معیار	-4913
▁مقدور	-4914
▁ممنون	-4915
▁موجزن	-4916
▁مٹایا	-4917
▁ناروا	-4918
▁نازاں	-4919
▁نازکی	-4920
▁نالاں	-4921
▁نالوں	-4922
▁نامرا	-4923
▁نخچیر	-4924
▁نقصان	-4925
▁نقصاں	-4926
▁نمائش	-4927
▁نمازی	-4928
▁نمناک	-4929
▁نکلتا	-4930
▁نکلنا	-4931
▁نکوہش	-4932
▁نگراں	-4933
▁نیشتر	-4934
▁ولیکن	-4935
▁ٹپکتا	-4936
▁ٹھکرا	-4937
▁پجاری	-4938
▁پرداز	-4939
▁پرندہ	-4940
▁پرکار	-4941
▁پچھلی	-4942
▁پڑھتے	-4943
▁پھرنے	-4944
▁پھنسا	-4945
▁پہروں	-4946
▁پیارا	-4947
▁پیالے	-4948
▁پیچاں	-4949
▁پیکاں	-4950
▁چاروں	-4951
▁چالاک	-4952
▁چڑیوں	-4953
▁چھونے	-4954
▁چھوٹی	-4955
▁	-4956
ا	-4957
ی	-4958
ہ	-4959
و	-4960
ر	-4961
ک	-4962
ے	-4963
ن	-4964
م	-4965
ت	-4966
	-4967
ں	-4968
س	-4969
ب	-4970
د	-4971
ھ	-4972
ل	-4973
ج	-4974
گ	-4975
ش	-4976
پ	-4977
ئ	-4978
ز	-4979
چ	-4980
آ	-4981
خ	-4982
ق	-4983
ف	-4984
ع	-4985
ح	-4986
غ	-4987
ص	-4988
ط	-4989
ٹ	-4990
ڑ	-4991
ظ	-4992
ۂ	-4993
ؔ	-4994
